const unsigned char t5_encoder_w16_z8_int8_tflite[] = {
    0x1c, 0x00, 0x00, 0x00, 0x54, 0x46, 0x4c, 0x33, 0x14, 0x00, 0x20, 0x00,
    0x1c, 0x00, 0x18, 0x00, 0x14, 0x00, 0x10, 0x00, 0x0c, 0x00, 0x00, 0x00,
    0x08, 0x00, 0x04, 0x00, 0x14, 0x00, 0x00, 0x00, 0x1c, 0x00, 0x00, 0x00,
    0x84, 0x00, 0x00, 0x00, 0xdc, 0x00, 0x00, 0x00, 0x48, 0x39, 0x00, 0x00,
    0x58, 0x39, 0x00, 0x00, 0x34, 0x49, 0x00, 0x00, 0x03, 0x00, 0x00, 0x00,
    0x01, 0x00, 0x00, 0x00, 0x04, 0x00, 0x00, 0x00, 0xe6, 0xc5, 0xff, 0xff,
    0x0c, 0x00, 0x00, 0x00, 0x1c, 0x00, 0x00, 0x00, 0x3c, 0x00, 0x00, 0x00,
    0x0f, 0x00, 0x00, 0x00, 0x73, 0x65, 0x72, 0x76, 0x69, 0x6e, 0x67, 0x5f,
    0x64, 0x65, 0x66, 0x61, 0x75, 0x6c, 0x74, 0x00, 0x01, 0x00, 0x00, 0x00,
    0x04, 0x00, 0x00, 0x00, 0x98, 0xff, 0xff, 0xff, 0x0d, 0x00, 0x00, 0x00,
    0x04, 0x00, 0x00, 0x00, 0x08, 0x00, 0x00, 0x00, 0x6f, 0x75, 0x74, 0x70,
    0x75, 0x74, 0x5f, 0x30, 0x00, 0x00, 0x00, 0x00, 0x01, 0x00, 0x00, 0x00,
    0x04, 0x00, 0x00, 0x00, 0xee, 0xc5, 0xff, 0xff, 0x04, 0x00, 0x00, 0x00,
    0x05, 0x00, 0x00, 0x00, 0x69, 0x6e, 0x70, 0x75, 0x74, 0x00, 0x00, 0x00,
    0x02, 0x00, 0x00, 0x00, 0x34, 0x00, 0x00, 0x00, 0x04, 0x00, 0x00, 0x00,
    0xdc, 0xff, 0xff, 0xff, 0x10, 0x00, 0x00, 0x00, 0x04, 0x00, 0x00, 0x00,
    0x13, 0x00, 0x00, 0x00, 0x43, 0x4f, 0x4e, 0x56, 0x45, 0x52, 0x53, 0x49,
    0x4f, 0x4e, 0x5f, 0x4d, 0x45, 0x54, 0x41, 0x44, 0x41, 0x54, 0x41, 0x00,
    0x08, 0x00, 0x0c, 0x00, 0x08, 0x00, 0x04, 0x00, 0x08, 0x00, 0x00, 0x00,
    0x0f, 0x00, 0x00, 0x00, 0x04, 0x00, 0x00, 0x00, 0x13, 0x00, 0x00, 0x00,
    0x6d, 0x69, 0x6e, 0x5f, 0x72, 0x75, 0x6e, 0x74, 0x69, 0x6d, 0x65, 0x5f,
    0x76, 0x65, 0x72, 0x73, 0x69, 0x6f, 0x6e, 0x00, 0x11, 0x00, 0x00, 0x00,
    0x68, 0x38, 0x00, 0x00, 0x60, 0x38, 0x00, 0x00, 0x4c, 0x38, 0x00, 0x00,
    0x38, 0x38, 0x00, 0x00, 0x24, 0x38, 0x00, 0x00, 0xf4, 0x37, 0x00, 0x00,
    0xe4, 0x35, 0x00, 0x00, 0xd4, 0x34, 0x00, 0x00, 0xc4, 0x00, 0x00, 0x00,
    0xbc, 0x00, 0x00, 0x00, 0xb4, 0x00, 0x00, 0x00, 0xac, 0x00, 0x00, 0x00,
    0xa4, 0x00, 0x00, 0x00, 0x9c, 0x00, 0x00, 0x00, 0x94, 0x00, 0x00, 0x00,
    0x74, 0x00, 0x00, 0x00, 0x04, 0x00, 0x00, 0x00, 0xa6, 0xc6, 0xff, 0xff,
    0x04, 0x00, 0x00, 0x00, 0x60, 0x00, 0x00, 0x00, 0x0c, 0x00, 0x00, 0x00,
    0x08, 0x00, 0x0e, 0x00, 0x08, 0x00, 0x04, 0x00, 0x08, 0x00, 0x00, 0x00,
    0x10, 0x00, 0x00, 0x00, 0x28, 0x00, 0x00, 0x00, 0x00, 0x00, 0x06, 0x00,
    0x08, 0x00, 0x04, 0x00, 0x06, 0x00, 0x00, 0x00, 0x04, 0x00, 0x00, 0x00,
    0x01, 0x00, 0x00, 0x00, 0xeb, 0x03, 0x00, 0x00, 0x0c, 0x00, 0x18, 0x00,
    0x14, 0x00, 0x10, 0x00, 0x0c, 0x00, 0x04, 0x00, 0x0c, 0x00, 0x00, 0x00,
    0x03, 0x9b, 0x19, 0xf6, 0x6a, 0x50, 0x3f, 0xf8, 0x02, 0x00, 0x00, 0x00,
    0x02, 0x00, 0x00, 0x00, 0x04, 0x00, 0x00, 0x00, 0x06, 0x00, 0x00, 0x00,
    0x32, 0x2e, 0x32, 0x31, 0x2e, 0x30, 0x00, 0x00, 0x12, 0xc7, 0xff, 0xff,
    0x04, 0x00, 0x00, 0x00, 0x10, 0x00, 0x00, 0x00, 0x31, 0x2e, 0x31, 0x34,
    0x2e, 0x30, 0x00, 0x00, 0x00, 0x00, 0x00, 0x00, 0x00, 0x00, 0x00, 0x00,
    0x64, 0xb9, 0xff, 0xff, 0x68, 0xb9, 0xff, 0xff, 0x6c, 0xb9, 0xff, 0xff,
    0x70, 0xb9, 0xff, 0xff, 0x74, 0xb9, 0xff, 0xff, 0x78, 0xb9, 0xff, 0xff,
    0x46, 0xc7, 0xff, 0xff, 0x04, 0x00, 0x00, 0x00, 0x00, 0x34, 0x00, 0x00,
    0xe0, 0xd6, 0xf4, 0x11, 0x23, 0x1a, 0xcf, 0xb3, 0x0c, 0xec, 0xbc, 0x48,
    0x19, 0x15, 0x09, 0xed, 0xd6, 0xb2, 0xed, 0x18, 0x24, 0xe3, 0x2c, 0xe8,
    0x13, 0x17, 0xee, 0x36, 0x3c, 0x47, 0xe4, 0xda, 0x34, 0x04, 0x04, 0x32,
    0x02, 0xee, 0xe5, 0x12, 0x0b, 0x3c, 0x1d, 0x29, 0xdd, 0xee, 0x1a, 0xc3,
    0x30, 0xba, 0x41, 0xbc, 0x0d, 0x0d, 0xbb, 0xf1, 0x39, 0x55, 0x14, 0xd1,
    0x37, 0x14, 0xa3, 0xfd, 0xf0, 0xe3, 0xcb, 0x3e, 0x13, 0xeb, 0x77, 0x58,
    0xc7, 0x1a, 0x40, 0xe5, 0x92, 0xeb, 0xd0, 0xfa, 0x1d, 0x5e, 0x46, 0x1f,
    0xdd, 0x50, 0x09, 0x45, 0x0b, 0xfd, 0x21, 0x19, 0xc6, 0xf9, 0xce, 0xe8,
    0x1e, 0xfe, 0x19, 0xe0, 0xd2, 0x95, 0xdd, 0x13, 0xb9, 0xee, 0xc6, 0xf9,
    0xf6, 0xb6, 0x2e, 0x00, 0x22, 0x30, 0xf4, 0x07, 0x03, 0xf5, 0xcb, 0xd1,
    0x2f, 0x06, 0xdc, 0x15, 0x7f, 0x3a, 0x1c, 0x00, 0xec, 0x06, 0xf5, 0xa7,
    0x8b, 0xd7, 0x3b, 0x9d, 0x0c, 0x2c, 0x1d, 0xdd, 0xca, 0xf0, 0xfc, 0x0d,
    0xaf, 0x17, 0x2f, 0xd5, 0xbc, 0xe6, 0x31, 0xb5, 0x2a, 0xd7, 0xf7, 0xd1,
    0xfb, 0x34, 0xd0, 0x43, 0x18, 0x26, 0x19, 0xea, 0x2a, 0x37, 0xa1, 0xc2,
    0x2e, 0x47, 0xff, 0xc7, 0xc7, 0xff, 0xec, 0x22, 0xf9, 0x00, 0x20, 0x1f,
    0x02, 0x0a, 0x1f, 0x2b, 0xe2, 0xca, 0xd3, 0x06, 0xe2, 0xe4, 0x18, 0xf9,
    0x0f, 0x51, 0x03, 0x2d, 0xc5, 0x01, 0xe8, 0x31, 0xfe, 0xeb, 0x49, 0xed,
    0x65, 0xe6, 0x5b, 0x1d, 0x4f, 0x3c, 0x65, 0x46, 0x16, 0x3f, 0x58, 0xeb,
    0x2e, 0xce, 0x4a, 0x47, 0xdf, 0xc3, 0xd1, 0x2f, 0x46, 0xcb, 0x16, 0x1e,
    0x3a, 0xdc, 0x35, 0x1f, 0x55, 0xf6, 0x2b, 0xd1, 0x24, 0x28, 0x02, 0xad,
    0x55, 0x35, 0x2e, 0xea, 0xe0, 0x5c, 0xc8, 0x4b, 0xe5, 0xff, 0x19, 0x04,
    0x3c, 0x13, 0xf3, 0x2c, 0x15, 0x00, 0x3e, 0xed, 0xca, 0xfb, 0xb9, 0xfb,
    0x05, 0x15, 0xfe, 0x1e, 0xf8, 0x21, 0xb2, 0x22, 0xb2, 0x33, 0xdc, 0xe2,
    0x5c, 0x15, 0x3e, 0xf1, 0x14, 0x2a, 0x32, 0x5f, 0x32, 0xf5, 0x02, 0x25,
    0x05, 0x18, 0xda, 0x0a, 0xf6, 0x0c, 0x20, 0xe2, 0x42, 0xcb, 0xa1, 0x03,
    0xe6, 0x41, 0xd2, 0x1d, 0xf0, 0xf8, 0x0b, 0x4b, 0xea, 0xbf, 0x4b, 0xe6,
    0xed, 0xe2, 0xc1, 0xc6, 0x4c, 0xb8, 0xe0, 0xa6, 0xd9, 0xff, 0xbd, 0x3f,
    0xc2, 0xb2, 0xee, 0xf4, 0xc4, 0xe3, 0x5c, 0x5b, 0x19, 0xe0, 0x4a, 0xf3,
    0xfd, 0xd9, 0xfd, 0xfc, 0xbb, 0xb7, 0xd0, 0x7f, 0x0d, 0x01, 0xf9, 0xe0,
    0xc7, 0x9a, 0x06, 0xbe, 0xc1, 0x23, 0xc5, 0x26, 0x6c, 0xd4, 0xf6, 0x34,
    0x10, 0xe2, 0xd5, 0x13, 0x14, 0x03, 0xe2, 0x50, 0x28, 0x0f, 0x08, 0x19,
    0x48, 0x03, 0xfb, 0x23, 0x00, 0xe9, 0x0a, 0xb0, 0xe6, 0x9c, 0xc9, 0xca,
    0xd9, 0x3d, 0x24, 0x19, 0x00, 0xd9, 0x19, 0x5b, 0x0a, 0x0b, 0x47, 0xd2,
    0xdb, 0x1a, 0xfc, 0xff, 0x17, 0xe8, 0x22, 0x28, 0xc7, 0x26, 0xe7, 0xea,
    0x43, 0xe4, 0xfc, 0x11, 0x22, 0x25, 0xfe, 0x25, 0x22, 0xfc, 0xf9, 0x08,
    0x13, 0xf3, 0x11, 0xf4, 0x36, 0x0c, 0x05, 0x0d, 0xd9, 0xf8, 0x04, 0xee,
    0x2f, 0x0f, 0x3f, 0xf7, 0x0d, 0x09, 0x1e, 0xf8, 0xa7, 0x0f, 0xd5, 0xc7,
    0xe9, 0x19, 0x22, 0xfc, 0x18, 0xf6, 0x28, 0x45, 0xc8, 0x12, 0x06, 0x05,
    0xe0, 0xec, 0x13, 0xfc, 0xe6, 0x16, 0x29, 0x21, 0x39, 0xca, 0x1c, 0x03,
    0xf1, 0x16, 0x15, 0x21, 0xf2, 0xcc, 0x24, 0x15, 0x20, 0x26, 0xd7, 0xe3,
    0x29, 0x07, 0x0b, 0xfd, 0xe9, 0x00, 0x81, 0x49, 0x1f, 0x18, 0x0d, 0x0d,
    0x14, 0x06, 0x3a, 0x37, 0xf5, 0x2f, 0x02, 0xfc, 0xf9, 0x1b, 0xf6, 0x06,
    0xea, 0x25, 0xf9, 0x15, 0x22, 0xf3, 0x2e, 0x0f, 0xe4, 0x3d, 0xf6, 0x22,
    0x22, 0xdb, 0x27, 0xca, 0x3d, 0xf0, 0xfa, 0x29, 0x05, 0xf0, 0xfc, 0xfd,
    0x02, 0x06, 0x0a, 0x20, 0xf8, 0x2e, 0xec, 0x0b, 0x12, 0xf9, 0x2a, 0xf5,
    0x22, 0x27, 0x00, 0xc2, 0xeb, 0x09, 0x20, 0xff, 0xe7, 0xef, 0x09, 0x3c,
    0x0c, 0xfa, 0x08, 0x27, 0xf0, 0xb6, 0x34, 0xe0, 0x2c, 0x27, 0x1c, 0x0c,
    0xc9, 0xee, 0x3e, 0x04, 0x2b, 0x14, 0x2a, 0xf6, 0xeb, 0x02, 0xe0, 0x0c,
    0x23, 0x1e, 0x0a, 0x11, 0x1c, 0xfc, 0xe8, 0x01, 0xdf, 0x04, 0x1f, 0x1f,
    0xef, 0xec, 0xf2, 0x05, 0x38, 0x1c, 0x0a, 0xe2, 0xe2, 0x0f, 0x14, 0x0b,
    0xfd, 0x14, 0xf1, 0xdb, 0x0d, 0x27, 0x1a, 0x08, 0xca, 0xef, 0x07, 0x18,
    0xe3, 0x1e, 0xf7, 0xe9, 0x26, 0x07, 0xfb, 0x1b, 0x23, 0x05, 0x0d, 0xff,
    0xfd, 0x09, 0xf5, 0xd8, 0xc4, 0x55, 0x27, 0x39, 0x3c, 0x23, 0xea, 0x47,
    0x2e, 0x26, 0xf3, 0x2e, 0x22, 0xd0, 0x22, 0x3a, 0xf0, 0x52, 0xf3, 0x2f,
    0x1d, 0xac, 0xc5, 0x30, 0x05, 0xfb, 0x41, 0xa8, 0x37, 0x4d, 0xe8, 0xdd,
    0xc1, 0x07, 0x4c, 0x3e, 0x35, 0x97, 0x2e, 0xc3, 0x7f, 0xe0, 0x3d, 0x1d,
    0x11, 0xf5, 0x28, 0xf8, 0x17, 0xcb, 0x25, 0xf5, 0xbb, 0x0b, 0x07, 0xdf,
    0x0c, 0xd0, 0x1b, 0xf5, 0x42, 0xaf, 0x12, 0x20, 0x5a, 0x0f, 0xad, 0xf1,
    0x4c, 0xd7, 0x40, 0x11, 0x05, 0x0c, 0xf5, 0x22, 0xae, 0x0c, 0x9f, 0x55,
    0x16, 0x0f, 0x11, 0xf2, 0xb1, 0x45, 0xf4, 0x3b, 0x9c, 0xd7, 0x22, 0xc7,
    0x16, 0xfe, 0x03, 0x23, 0xfa, 0xd8, 0x33, 0xe8, 0x37, 0x74, 0xd8, 0x33,
    0xf9, 0x87, 0x3e, 0x31, 0x30, 0x22, 0xa7, 0x67, 0xbe, 0x53, 0xf9, 0xe5,
    0xd8, 0xda, 0xde, 0x44, 0x1b, 0x21, 0x30, 0xf2, 0x1c, 0x45, 0xd0, 0xab,
    0xf8, 0xbf, 0x4f, 0x46, 0x02, 0x6b, 0x74, 0xc5, 0xb5, 0xb5, 0x1b, 0x3e,
    0xc2, 0xac, 0xbf, 0xcf, 0x5c, 0xf9, 0x40, 0x5d, 0x09, 0x09, 0x0c, 0x5d,
    0x9c, 0xa6, 0xf3, 0xd8, 0xcc, 0xab, 0xf5, 0x60, 0x5d, 0x34, 0x3f, 0xde,
    0xbd, 0x3a, 0xb4, 0xed, 0xdd, 0x00, 0xa6, 0x1c, 0x73, 0x43, 0xfd, 0x49,
    0xd2, 0x12, 0xf3, 0xde, 0xc3, 0x6c, 0x25, 0x00, 0xfd, 0xf6, 0x00, 0x30,
    0x41, 0x8d, 0xd2, 0xc6, 0xaf, 0x4e, 0x17, 0x20, 0xd3, 0x0a, 0x4b, 0x30,
    0xd1, 0x1f, 0xca, 0x33, 0x0d, 0x57, 0x3c, 0x08, 0xd0, 0x2c, 0xc7, 0xbc,
    0x49, 0x06, 0x54, 0xa6, 0x00, 0x46, 0x52, 0x09, 0xe8, 0x76, 0xf5, 0xf6,
    0x33, 0x4a, 0xae, 0x2b, 0x0a, 0xb9, 0xfb, 0xf2, 0x34, 0xf7, 0xb3, 0xd7,
    0x23, 0x52, 0x32, 0xfa, 0xff, 0x46, 0x55, 0x22, 0xfd, 0xf9, 0x71, 0x37,
    0x14, 0x40, 0xc5, 0xe0, 0xf5, 0xa1, 0x41, 0xc7, 0x2e, 0x2e, 0xe2, 0xcc,
    0xfb, 0x69, 0x1c, 0x10, 0x66, 0x13, 0xc7, 0xa0, 0x01, 0x32, 0x4d, 0xca,
    0x11, 0x24, 0x5b, 0x52, 0x20, 0x27, 0xfc, 0xdd, 0xf2, 0x3f, 0x3e, 0x33,
    0x3f, 0x95, 0x23, 0xbd, 0x41, 0x25, 0xde, 0xd1, 0xb1, 0x96, 0xd5, 0x0e,
    0xef, 0x7f, 0xf2, 0xdb, 0xea, 0x41, 0xe4, 0x05, 0x2a, 0x73, 0x20, 0xb4,
    0x06, 0xf5, 0x2f, 0x3d, 0x15, 0xa9, 0x16, 0x42, 0xd1, 0xfb, 0xfd, 0x89,
    0x08, 0x2b, 0xcc, 0x2d, 0xfe, 0xd9, 0x16, 0x8b, 0x2e, 0x0e, 0x9f, 0x91,
    0x22, 0xf4, 0x39, 0xcc, 0x43, 0x18, 0x4b, 0x68, 0x2b, 0xfb, 0x3d, 0xd5,
    0x37, 0xb9, 0x4e, 0x5d, 0x22, 0x4f, 0xfd, 0xbd, 0x38, 0x42, 0x99, 0xc9,
    0xfc, 0xef, 0xb9, 0xaf, 0x59, 0x69, 0xcd, 0x20, 0x43, 0xeb, 0x1e, 0xe0,
    0xf7, 0x1c, 0x30, 0xb7, 0xda, 0x37, 0x18, 0x07, 0x55, 0xe8, 0xf1, 0x1b,
    0x7b, 0xed, 0x43, 0x0c, 0xaf, 0x04, 0xfa, 0xbf, 0xcb, 0x0c, 0x13, 0xa9,
    0x21, 0xcd, 0xc7, 0xdd, 0xc4, 0xab, 0x44, 0x00, 0x57, 0xdb, 0x84, 0x3c,
    0x5a, 0xe5, 0x01, 0xa5, 0x02, 0xd7, 0x25, 0xbf, 0xef, 0xc8, 0xdd, 0xc9,
    0xae, 0xd8, 0xd2, 0xce, 0x10, 0x12, 0xd7, 0x4f, 0xff, 0xf3, 0xfe, 0xf1,
    0xc5, 0xf4, 0xc8, 0x0b, 0x1f, 0xce, 0x2b, 0xc1, 0x08, 0xc6, 0xdf, 0x1e,
    0x02, 0x31, 0xfb, 0x26, 0xba, 0xda, 0x23, 0xd4, 0x2c, 0x1c, 0xf8, 0xb2,
    0xc1, 0x27, 0xce, 0xda, 0xd5, 0x3d, 0x2b, 0xf3, 0xf9, 0xb0, 0x1e, 0xe4,
    0xb3, 0xe9, 0x1b, 0x2c, 0x0a, 0xfa, 0x0d, 0x3c, 0xa2, 0x47, 0x26, 0xdc,
    0x68, 0x34, 0x15, 0x28, 0x17, 0xe3, 0xf2, 0xf8, 0x0c, 0x04, 0x1d, 0x0b,
    0x0d, 0xea, 0x17, 0xfb, 0x45, 0xde, 0xe0, 0x0f, 0xfa, 0x25, 0xeb, 0x21,
    0x1f, 0x2c, 0x32, 0x16, 0xe7, 0xce, 0xcc, 0x22, 0x0d, 0xf7, 0xd9, 0x19,
    0x38, 0x94, 0xf4, 0xe1, 0x0a, 0xd6, 0xc4, 0xfb, 0xfb, 0xdd, 0x0e, 0xf0,
    0xfc, 0xcb, 0xde, 0x16, 0x48, 0xd4, 0x1b, 0xe9, 0xf2, 0x2f, 0xf8, 0xed,
    0xc5, 0x10, 0x14, 0xaa, 0x0a, 0x28, 0x0b, 0xc7, 0x13, 0x15, 0x4d, 0xb2,
    0x16, 0xc7, 0x21, 0xdc, 0x33, 0x3d, 0xd6, 0x1d, 0xb9, 0xde, 0xcd, 0xe7,
    0xdd, 0x1d, 0xe4, 0x2d, 0xdb, 0x0c, 0x34, 0x11, 0x31, 0x14, 0xe1, 0xc3,
    0x26, 0x4c, 0xf5, 0x0e, 0x14, 0x3c, 0xd0, 0xf4, 0x22, 0xe1, 0x0e, 0x81,
    0xa1, 0xf0, 0xe9, 0x1e, 0x12, 0x1e, 0x3b, 0x12, 0xcd, 0x24, 0x28, 0x08,
    0x53, 0x13, 0xf2, 0xd0, 0x13, 0x11, 0xec, 0xc2, 0x3f, 0x16, 0xdb, 0x35,
    0xe8, 0xce, 0xfa, 0x05, 0xe3, 0x30, 0xe2, 0xe6, 0x06, 0xc7, 0x02, 0xf5,
    0xfb, 0x44, 0x1e, 0x1c, 0x12, 0xb4, 0x1f, 0x13, 0xfe, 0x35, 0x02, 0x14,
    0xdb, 0xc1, 0xba, 0x17, 0x0b, 0x04, 0xf5, 0x00, 0x1c, 0x1f, 0x10, 0xd2,
    0xfb, 0xd7, 0xe6, 0x2e, 0xf6, 0xe9, 0xe7, 0x00, 0x06, 0x0e, 0xf1, 0x14,
    0x24, 0x1b, 0xfb, 0x07, 0xdb, 0x14, 0xeb, 0xca, 0xf1, 0x02, 0x02, 0x15,
    0x45, 0x27, 0x13, 0xf0, 0xf4, 0xf7, 0xfc, 0xfd, 0x24, 0x16, 0x0d, 0xec,
    0x17, 0x05, 0xf1, 0xef, 0xe4, 0x15, 0x08, 0xdf, 0xfa, 0x35, 0xcf, 0xda,
    0xfe, 0xe7, 0x08, 0xd1, 0x03, 0xf2, 0x32, 0x2a, 0xf8, 0x25, 0xd1, 0xea,
    0xcf, 0xed, 0xea, 0x36, 0x28, 0xf8, 0x1d, 0x24, 0x1b, 0x07, 0xee, 0xe7,
    0x03, 0x2d, 0xb7, 0x0f, 0x40, 0x18, 0xd8, 0x37, 0xe6, 0xc3, 0xcf, 0x07,
    0xee, 0x10, 0xfc, 0x21, 0xe8, 0x23, 0xff, 0x07, 0x21, 0xef, 0x00, 0xdf,
    0xb2, 0x2c, 0xb9, 0x28, 0x57, 0xfb, 0x2e, 0x25, 0x06, 0x00, 0xbe, 0x00,
    0xf9, 0xda, 0xec, 0xbc, 0x18, 0xfc, 0x25, 0x05, 0xd9, 0x32, 0xf8, 0xe6,
    0x04, 0x03, 0xe8, 0x04, 0x81, 0x11, 0xc9, 0xf8, 0x25, 0xf8, 0xf8, 0xdd,
    0xc2, 0x05, 0x04, 0xd0, 0x1d, 0x3e, 0xe2, 0x27, 0x09, 0x2e, 0x02, 0xc2,
    0x14, 0x0c, 0xf2, 0xf3, 0xbe, 0x08, 0xe1, 0x26, 0xf6, 0x12, 0xe9, 0x02,
    0x4e, 0x0e, 0xd0, 0x03, 0x08, 0xd1, 0xeb, 0xde, 0x00, 0x30, 0xf3, 0x37,
    0xe3, 0x05, 0xfb, 0x11, 0x0b, 0x1b, 0x02, 0x33, 0xe5, 0x14, 0xfb, 0x09,
    0x30, 0x05, 0x02, 0xf4, 0x19, 0x17, 0xf3, 0x02, 0xe0, 0xe4, 0x13, 0x1b,
    0x34, 0xfb, 0x08, 0x1a, 0x26, 0x06, 0xd9, 0x28, 0xd6, 0xef, 0xd6, 0xed,
    0x0e, 0xef, 0xfa, 0x5f, 0x18, 0xe9, 0x54, 0xf2, 0x24, 0xe6, 0xe8, 0xd3,
    0x06, 0x02, 0x26, 0x07, 0xda, 0x19, 0xf9, 0xed, 0xb0, 0xda, 0xdc, 0x73,
    0x0f, 0x24, 0xeb, 0xf0, 0xe7, 0xc6, 0xe3, 0xce, 0xf9, 0xe7, 0xe3, 0x19,
    0x1c, 0xea, 0x16, 0x0b, 0xd2, 0x1b, 0x02, 0xd2, 0xed, 0x18, 0xda, 0xa5,
    0xf1, 0xea, 0x7f, 0xf3, 0xef, 0x13, 0xf6, 0x0b, 0xba, 0xe9, 0x00, 0xd3,
    0x13, 0x3a, 0xf4, 0xdc, 0xfd, 0x1d, 0x10, 0x13, 0x02, 0x2f, 0xe1, 0xfc,
    0xfe, 0xe4, 0x0c, 0xd6, 0x44, 0x0a, 0x12, 0xfa, 0x37, 0x01, 0x1d, 0x36,
    0x10, 0x1e, 0xfd, 0xe5, 0xd0, 0x4d, 0xe5, 0xbf, 0xfc, 0x0c, 0x0e, 0x03,
    0xc9, 0x02, 0xeb, 0xf7, 0xf5, 0xd4, 0x25, 0xbb, 0xed, 0xea, 0x0c, 0xee,
    0x41, 0x39, 0xed, 0x23, 0x17, 0xff, 0x44, 0x16, 0x02, 0x08, 0xd6, 0xea,
    0x1e, 0xe5, 0x27, 0x44, 0xdf, 0xd3, 0x18, 0x02, 0x2c, 0x40, 0x0b, 0xdd,
    0x28, 0x28, 0xa1, 0xee, 0x49, 0xd9, 0xe4, 0x1c, 0x44, 0x1f, 0x1f, 0xfa,
    0x08, 0xf9, 0x2c, 0xc0, 0x0b, 0xda, 0xea, 0x16, 0x37, 0x09, 0xe6, 0x03,
    0x31, 0x18, 0xff, 0x09, 0xce, 0xd7, 0x27, 0x2d, 0x3c, 0x1c, 0x5e, 0xe5,
    0xdc, 0x07, 0x05, 0xf1, 0x2f, 0xef, 0x1f, 0x28, 0x21, 0xe0, 0xef, 0xff,
    0xf8, 0x00, 0xf4, 0x00, 0xd6, 0x31, 0xcc, 0xe5, 0x1e, 0xd3, 0x1b, 0x21,
    0x34, 0xc9, 0x04, 0xef, 0x2a, 0x0b, 0x24, 0x47, 0xf3, 0xe4, 0xee, 0xba,
    0x0e, 0xe4, 0x23, 0x35, 0xdf, 0xf7, 0xfd, 0xe5, 0xfa, 0x1c, 0xef, 0x19,
    0x07, 0x03, 0xc5, 0x2a, 0x3b, 0x0a, 0xdb, 0xee, 0xf9, 0xd4, 0x0c, 0x1d,
    0x15, 0x1c, 0xea, 0x0f, 0x5f, 0x1f, 0xe3, 0x2b, 0xce, 0xe8, 0xe4, 0x05,
    0xf0, 0xee, 0x0f, 0xf7, 0xe3, 0xf9, 0x1a, 0xf1, 0x12, 0xe2, 0xdb, 0xef,
    0x38, 0x20, 0xd8, 0x23, 0xda, 0x0b, 0x44, 0xdb, 0xdc, 0x1c, 0x23, 0x0c,
    0x25, 0x23, 0x0d, 0x30, 0x03, 0xdc, 0xe5, 0x1b, 0xf8, 0x1a, 0x06, 0xf8,
    0x05, 0xf6, 0x01, 0xec, 0x02, 0x1f, 0xfd, 0xed, 0xc5, 0xf9, 0x10, 0x3b,
    0xe1, 0xdd, 0x24, 0x16, 0xe4, 0x1a, 0xf5, 0x15, 0x07, 0x5c, 0xca, 0xeb,
    0x02, 0x22, 0x35, 0xf8, 0x0b, 0xe7, 0x2c, 0xe1, 0xe4, 0x48, 0x63, 0x31,
    0xc1, 0x01, 0xda, 0x05, 0x06, 0xd9, 0x01, 0x0d, 0x11, 0xf3, 0x3f, 0x23,
    0x42, 0x32, 0x13, 0xe2, 0x27, 0xe5, 0xeb, 0xcb, 0x0f, 0x2f, 0xd5, 0xf5,
    0xf5, 0x16, 0x21, 0x18, 0xf3, 0x4f, 0x20, 0x04, 0xde, 0xef, 0xd8, 0x03,
    0xd6, 0x69, 0x15, 0xf9, 0xda, 0xe7, 0x17, 0xf7, 0xf8, 0x26, 0x4d, 0x15,
    0xf6, 0x24, 0xf0, 0x4b, 0xe2, 0xe2, 0xe9, 0x1b, 0x47, 0x34, 0xe2, 0xf5,
    0xf6, 0x16, 0xeb, 0xf7, 0xde, 0x2b, 0xe2, 0x1c, 0xe6, 0xed, 0xb1, 0x29,
    0x0a, 0xbf, 0xda, 0xdb, 0x7f, 0xba, 0x01, 0xca, 0xce, 0xea, 0xe8, 0xdd,
    0x40, 0xfb, 0xed, 0xfe, 0x10, 0xf6, 0x47, 0x0c, 0x06, 0x26, 0xeb, 0x2e,
    0xe8, 0xfd, 0xe7, 0xea, 0x24, 0x25, 0x2c, 0x2a, 0x02, 0x0a, 0xfd, 0xe9,
    0xdd, 0xf8, 0xd4, 0x1c, 0x0e, 0xce, 0xe1, 0xe8, 0xcc, 0x00, 0x20, 0x14,
    0x11, 0x1f, 0x02, 0x9b, 0x01, 0xed, 0xf4, 0xcc, 0xfd, 0xc8, 0x2f, 0xcd,
    0xda, 0x27, 0x01, 0xfc, 0xbd, 0xbe, 0x10, 0x0f, 0xfb, 0x7f, 0xdb, 0x2a,
    0xf5, 0x0b, 0xd2, 0xd5, 0x20, 0xd7, 0x49, 0x13, 0xd9, 0xf4, 0x79, 0x14,
    0xe0, 0x09, 0xdc, 0x21, 0xdf, 0xf4, 0xe9, 0x1d, 0xf1, 0x25, 0xe5, 0x62,
    0x0b, 0x0e, 0x07, 0x04, 0x0f, 0xac, 0xe3, 0x25, 0x11, 0x18, 0x09, 0xe6,
    0x18, 0x17, 0x0f, 0x27, 0x30, 0x2f, 0xfc, 0x12, 0x03, 0xdc, 0xcf, 0xed,
    0x07, 0x08, 0x02, 0x2b, 0xe5, 0xe6, 0xf2, 0xd3, 0xd5, 0x04, 0x24, 0xe9,
    0x12, 0x03, 0x1d, 0x16, 0x1a, 0x37, 0xeb, 0x0a, 0x4b, 0xf0, 0x14, 0x02,
    0xfb, 0x09, 0x18, 0xb8, 0xe2, 0xf9, 0xe1, 0xf8, 0x25, 0x36, 0xf9, 0x04,
    0xb9, 0xf1, 0x3c, 0xcc, 0xd4, 0xe7, 0x05, 0xf0, 0x1f, 0xea, 0x06, 0xf7,
    0x02, 0xee, 0xaf, 0xf7, 0xef, 0xa6, 0xee, 0x17, 0xf6, 0x2f, 0xca, 0xe2,
    0xef, 0x02, 0xec, 0x0d, 0xed, 0xf0, 0x1e, 0x25, 0xde, 0x01, 0x24, 0xda,
    0xfe, 0x0f, 0xd9, 0xe0, 0xe6, 0x11, 0xfd, 0xfb, 0x32, 0x13, 0x09, 0x0a,
    0x14, 0xef, 0x42, 0xde, 0xf2, 0x14, 0x11, 0xec, 0x16, 0x14, 0x1d, 0xd5,
    0x31, 0x0e, 0x2b, 0xe9, 0x1c, 0x21, 0x1f, 0x37, 0x0e, 0xac, 0xc9, 0xdb,
    0xdf, 0x25, 0xda, 0xe6, 0xb6, 0xf0, 0x38, 0x2f, 0x58, 0xeb, 0xf0, 0x28,
    0x36, 0x2d, 0x12, 0x5f, 0x27, 0x47, 0x2a, 0xd0, 0x0d, 0x5b, 0xff, 0xe5,
    0xf2, 0x0e, 0x0a, 0x67, 0xde, 0x81, 0xf3, 0x23, 0x2e, 0x77, 0x57, 0xc7,
    0x15, 0x34, 0x3a, 0x06, 0x2c, 0xac, 0x5b, 0x13, 0x3c, 0x2d, 0xe0, 0xc1,
    0x10, 0x48, 0x5f, 0x0a, 0xb6, 0x56, 0xe0, 0x9b, 0x9f, 0xe1, 0x52, 0x58,
    0xeb, 0xcd, 0x31, 0x62, 0xfd, 0x0f, 0x4e, 0xf5, 0xf9, 0xdb, 0x00, 0xdc,
    0x22, 0x0f, 0x2a, 0xcc, 0x3d, 0xd4, 0x49, 0xfc, 0xe9, 0xbe, 0x19, 0x11,
    0x4c, 0x00, 0x44, 0xfe, 0xd8, 0xd8, 0xe2, 0x26, 0x30, 0x00, 0x04, 0x2c,
    0x15, 0x55, 0x20, 0xf3, 0xf7, 0xe5, 0x13, 0x0f, 0xf0, 0x1b, 0xe1, 0xd3,
    0xea, 0xe7, 0x57, 0x07, 0x31, 0x06, 0xff, 0xda, 0x08, 0x2c, 0x31, 0x0e,
    0x4d, 0xd3, 0x02, 0x12, 0x47, 0xf6, 0xcc, 0x9b, 0xdc, 0xf4, 0xe5, 0x4d,
    0xe2, 0x35, 0x0a, 0x41, 0x6e, 0x42, 0x0f, 0xf1, 0xe0, 0x49, 0xfa, 0xcf,
    0x61, 0x4d, 0x04, 0x4e, 0x2e, 0x51, 0x4f, 0xd6, 0xf1, 0x09, 0x27, 0xcb,
    0xca, 0x47, 0x21, 0x02, 0xc0, 0xe6, 0x11, 0x3b, 0xf2, 0x12, 0x34, 0x16,
    0x00, 0xe5, 0x02, 0xd9, 0xf2, 0x2d, 0xf7, 0x51, 0x0d, 0x43, 0x18, 0xb1,
    0x56, 0xf5, 0xda, 0x2e, 0x35, 0x82, 0xd9, 0x8f, 0x3b, 0x07, 0x0c, 0x3d,
    0xa2, 0x41, 0xe4, 0x44, 0x31, 0xc1, 0xb8, 0xff, 0x0d, 0x57, 0xe6, 0xb5,
    0xff, 0x3b, 0xe5, 0xe9, 0xd8, 0xfc, 0x99, 0xe5, 0xcc, 0xe9, 0x14, 0x0a,
    0xb6, 0xd6, 0x1d, 0xd9, 0x0a, 0x3f, 0xd0, 0xf0, 0xb7, 0x01, 0xd7, 0x4a,
    0xfb, 0x29, 0xb3, 0xe3, 0xf5, 0xe0, 0xdf, 0x37, 0xcc, 0xf9, 0xee, 0x46,
    0xfd, 0xb8, 0x1a, 0xf0, 0xc2, 0x1a, 0xcf, 0x25, 0x20, 0xae, 0x28, 0xf7,
    0xd2, 0x56, 0xaa, 0x4d, 0xda, 0x47, 0x46, 0x00, 0x01, 0x4c, 0xed, 0x1c,
    0x4b, 0xee, 0xda, 0xdd, 0xbf, 0x19, 0x38, 0x3e, 0x0e, 0xcc, 0xc2, 0xf0,
    0xbf, 0x15, 0x3d, 0xd1, 0xb8, 0xb1, 0x43, 0xda, 0x1a, 0x42, 0x4c, 0xe6,
    0xfd, 0x43, 0x3a, 0x11, 0xcb, 0x07, 0x4b, 0xe9, 0xb9, 0x04, 0x2a, 0xe0,
    0x42, 0xfa, 0xe8, 0x21, 0xb6, 0x18, 0x27, 0x20, 0x18, 0xfc, 0x60, 0x49,
    0x32, 0x11, 0x8d, 0x7d, 0xfe, 0x18, 0xf7, 0x6c, 0xd0, 0x0f, 0xfa, 0xe3,
    0x05, 0x51, 0x44, 0xfe, 0x79, 0x1e, 0x81, 0xf9, 0x23, 0xeb, 0x14, 0x12,
    0xe1, 0x5a, 0x3e, 0xd8, 0x1f, 0xd9, 0xf2, 0xbd, 0xe6, 0xcd, 0xa4, 0x0a,
    0x6b, 0x37, 0x04, 0x3e, 0x2b, 0x24, 0xce, 0xee, 0x11, 0x48, 0xf8, 0xfe,
    0x3b, 0x44, 0xf0, 0xe2, 0x46, 0x2d, 0xfb, 0xd4, 0x0b, 0xad, 0xe1, 0x15,
    0x39, 0x2f, 0xec, 0xad, 0x00, 0xe8, 0xed, 0xfa, 0xe7, 0xdf, 0xd2, 0x11,
    0xed, 0xe1, 0xf4, 0xa3, 0x52, 0x21, 0x0d, 0xe8, 0x39, 0xf8, 0x0e, 0xe0,
    0xc6, 0x4d, 0xcf, 0xc7, 0x60, 0x0d, 0x39, 0xd3, 0x2e, 0xe9, 0x00, 0xf4,
    0x21, 0x0d, 0x54, 0x57, 0x24, 0x0d, 0x03, 0xd9, 0x13, 0xca, 0x38, 0x30,
    0xba, 0x01, 0x42, 0xdd, 0x3e, 0x2f, 0xda, 0xdf, 0x24, 0x55, 0x2e, 0x3c,
    0x07, 0xb7, 0x01, 0x2d, 0x30, 0x15, 0xe6, 0xb8, 0xf0, 0x2a, 0xe2, 0xfa,
    0xf9, 0xf1, 0xec, 0x1a, 0xf9, 0x31, 0xfb, 0x96, 0x00, 0xd1, 0x9b, 0x54,
    0x35, 0x20, 0xa1, 0xda, 0xdd, 0xc8, 0xd8, 0x0c, 0x3e, 0xfb, 0xa0, 0x06,
    0x03, 0x5f, 0xd8, 0x2b, 0x1b, 0x42, 0x10, 0xb7, 0x0e, 0x50, 0x9e, 0xe3,
    0x28, 0x70, 0xbb, 0x0d, 0xbc, 0x0d, 0x28, 0xed, 0x04, 0xf7, 0x1a, 0xd6,
    0xb1, 0xd6, 0x3e, 0xcf, 0xf7, 0xbc, 0xb0, 0x0c, 0x02, 0xf5, 0x01, 0x36,
    0x14, 0x20, 0xe4, 0xf5, 0x2a, 0x54, 0x1d, 0xfd, 0x50, 0x2f, 0x16, 0xe3,
    0xc3, 0x97, 0xa6, 0xba, 0x66, 0x12, 0x5b, 0x41, 0x5c, 0x6b, 0xe8, 0x06,
    0x03, 0xcd, 0x0d, 0xf7, 0xab, 0x12, 0x3f, 0x52, 0x0c, 0xb5, 0xe3, 0x3e,
    0xd9, 0xfe, 0x1a, 0x01, 0x39, 0x41, 0xd2, 0x58, 0x2b, 0x81, 0xf3, 0x4d,
    0x25, 0x1a, 0xd4, 0x2e, 0xd7, 0x6d, 0xd8, 0x0c, 0xdb, 0xdd, 0x2b, 0xa6,
    0xf6, 0xf4, 0x2f, 0x41, 0xf5, 0xc8, 0xf0, 0xcf, 0xda, 0xdb, 0xf8, 0x3d,
    0x73, 0x47, 0x79, 0x2d, 0xee, 0xce, 0x25, 0x37, 0x2e, 0xd8, 0x62, 0x37,
    0x21, 0x3f, 0xee, 0xe8, 0xad, 0xbd, 0x33, 0xed, 0xd3, 0xf1, 0x0e, 0xf8,
    0x4d, 0x21, 0xff, 0xd8, 0xcf, 0xde, 0x1c, 0x33, 0xe8, 0x32, 0x25, 0x50,
    0x17, 0xc6, 0xec, 0xee, 0xdc, 0x0d, 0xe7, 0xe0, 0xfe, 0xcb, 0x38, 0x2b,
    0xee, 0x16, 0xdf, 0x2d, 0xd9, 0x2a, 0xe3, 0x2f, 0xe3, 0x13, 0x57, 0xd6,
    0xec, 0xd9, 0xea, 0xe1, 0xb2, 0xea, 0x31, 0x12, 0xe8, 0x27, 0xd0, 0x4b,
    0x3f, 0xdd, 0xf6, 0x03, 0x1d, 0x03, 0x10, 0xd8, 0xfc, 0x26, 0xf2, 0x37,
    0x2f, 0x25, 0x00, 0x05, 0xf9, 0xdd, 0x2d, 0xdb, 0x49, 0xec, 0xfd, 0xe7,
    0xc7, 0x4c, 0xf5, 0xff, 0x0a, 0xe0, 0x1c, 0xd4, 0x18, 0xef, 0x1b, 0x2c,
    0xdd, 0x33, 0x0b, 0xfa, 0x25, 0xde, 0xe4, 0x1d, 0xed, 0xee, 0x05, 0xf3,
    0xea, 0xef, 0x52, 0x18, 0xe0, 0xd2, 0x0e, 0x10, 0x12, 0x18, 0x1a, 0x2a,
    0xf7, 0x19, 0xfa, 0xdb, 0x7f, 0x09, 0xfc, 0x13, 0xf6, 0x4f, 0x20, 0xcd,
    0xdc, 0xba, 0xe6, 0xfa, 0x0f, 0x1e, 0xe9, 0xdb, 0x37, 0xcb, 0x45, 0xd0,
    0xf4, 0x5a, 0xd5, 0x3a, 0xf1, 0x12, 0x24, 0x12, 0x2a, 0x2f, 0x2d, 0xea,
    0x18, 0xdd, 0x5b, 0xd1, 0xed, 0x28, 0xd0, 0x4e, 0x23, 0xd7, 0x10, 0x20,
    0xe0, 0xfe, 0x18, 0xf5, 0xda, 0xe1, 0xeb, 0xe5, 0x41, 0xe6, 0x0c, 0xfe,
    0xe5, 0xe3, 0x40, 0xfa, 0xea, 0x00, 0x08, 0x28, 0x1c, 0xf0, 0x42, 0xf0,
    0x03, 0xcc, 0x0b, 0x2f, 0xf6, 0xe9, 0xf2, 0x20, 0xc3, 0xfb, 0x10, 0x00,
    0x01, 0xfe, 0xe4, 0xc5, 0xe5, 0xd4, 0xfd, 0x04, 0x26, 0x12, 0xe1, 0x2c,
    0x48, 0xd0, 0xd3, 0xca, 0xcd, 0x37, 0x1a, 0x1f, 0x41, 0xf6, 0xf3, 0xf5,
    0x05, 0x31, 0xfb, 0x25, 0xf6, 0xfe, 0x16, 0xe6, 0xd8, 0x0d, 0xc0, 0xf5,
    0x45, 0x30, 0xef, 0x4d, 0x3b, 0x06, 0xc1, 0xf2, 0x03, 0xcf, 0xe1, 0xdb,
    0xd3, 0xc8, 0x16, 0x4f, 0x14, 0x34, 0x0e, 0x11, 0x35, 0xe3, 0xaf, 0x3b,
    0x31, 0xf6, 0xae, 0x29, 0x07, 0x3c, 0xe2, 0xfb, 0xf2, 0xbf, 0xe6, 0xea,
    0x20, 0xf8, 0xd7, 0x10, 0xf3, 0x27, 0xe3, 0x0f, 0xe0, 0xc4, 0x38, 0xe9,
    0x0c, 0x11, 0x67, 0xf1, 0xbb, 0x3f, 0xfa, 0x37, 0x38, 0x13, 0x39, 0xc7,
    0xf0, 0xde, 0xec, 0xdb, 0x0a, 0x4c, 0x1f, 0x37, 0x1d, 0x07, 0x3e, 0xeb,
    0x00, 0xdb, 0xe7, 0xef, 0x06, 0xd6, 0xee, 0x16, 0xf7, 0xd5, 0x13, 0x12,
    0x33, 0xbe, 0x29, 0x14, 0xf7, 0x2f, 0xd9, 0x15, 0xcd, 0x31, 0x0a, 0x14,
    0x31, 0x08, 0xe1, 0xcf, 0xfd, 0xfe, 0x18, 0xe6, 0xd0, 0x40, 0x3d, 0xd3,
    0xe3, 0x44, 0xc7, 0x2d, 0x46, 0x36, 0xd2, 0xda, 0x02, 0x0c, 0x06, 0x21,
    0x1a, 0x03, 0xee, 0xdc, 0x3d, 0xf5, 0x05, 0x23, 0xf0, 0xdc, 0xce, 0x3f,
    0x0c, 0x47, 0x3a, 0xd0, 0x0b, 0x07, 0x00, 0xec, 0x17, 0xea, 0xbf, 0xfb,
    0x7f, 0x37, 0xd0, 0x33, 0xf0, 0xd4, 0xcb, 0xf8, 0x0e, 0xc9, 0xd0, 0x0d,
    0x1d, 0xa7, 0x42, 0x40, 0xfe, 0x11, 0x01, 0x1c, 0x0c, 0x05, 0xc8, 0x27,
    0xe6, 0x2b, 0x2e, 0xda, 0x0d, 0xe1, 0x15, 0xd4, 0xdf, 0xf1, 0x37, 0x0a,
    0xd9, 0x19, 0xf3, 0x2d, 0x08, 0xe0, 0x59, 0xf4, 0xda, 0xc2, 0x33, 0x45,
    0xb6, 0x25, 0x0d, 0x33, 0xb4, 0x00, 0x10, 0xe6, 0x11, 0xcc, 0x6a, 0x10,
    0xdd, 0xd1, 0x07, 0x47, 0x35, 0xd8, 0x63, 0x1f, 0xfe, 0xda, 0x1f, 0x2d,
    0x06, 0xfa, 0xce, 0xa4, 0xb6, 0xc6, 0x9c, 0x08, 0xc3, 0x37, 0x3e, 0xda,
    0x10, 0x16, 0x08, 0xfc, 0x0e, 0xb8, 0x0a, 0xcb, 0x0c, 0x2a, 0xfa, 0x1b,
    0xea, 0x04, 0x22, 0xc7, 0xca, 0xfd, 0xc1, 0xec, 0x1b, 0x06, 0xeb, 0xec,
    0x3a, 0x08, 0x07, 0xe1, 0x4a, 0x2e, 0x01, 0xc8, 0x29, 0xf0, 0xfe, 0xe0,
    0xd7, 0xef, 0x14, 0xea, 0xd2, 0xcd, 0xe9, 0xd1, 0x57, 0x35, 0x17, 0x53,
    0xf5, 0x37, 0x25, 0xfc, 0xf0, 0xe8, 0xfa, 0x1f, 0x0b, 0x32, 0x3b, 0xac,
    0x37, 0x1a, 0x5a, 0x00, 0x16, 0x16, 0xf9, 0xc9, 0xcb, 0xe9, 0x0e, 0x37,
    0x1a, 0x17, 0xde, 0x27, 0x20, 0xec, 0x2d, 0x08, 0xdc, 0x42, 0xcb, 0xfd,
    0x2e, 0xbc, 0xde, 0xab, 0x37, 0xbe, 0xdb, 0x0f, 0xfd, 0xe5, 0xe9, 0x0d,
    0xfd, 0xfe, 0x29, 0xd7, 0x15, 0xfa, 0x0a, 0xd3, 0xb8, 0x04, 0xfb, 0x1a,
    0xd7, 0x43, 0x2c, 0x7d, 0x03, 0xe6, 0xf5, 0x2a, 0xf3, 0x98, 0xe8, 0x26,
    0xda, 0x01, 0xb5, 0xf9, 0x58, 0x36, 0x08, 0xf1, 0xb9, 0x98, 0x99, 0x0e,
    0x31, 0xd8, 0x13, 0x7f, 0xe0, 0x58, 0xe4, 0x2b, 0xfc, 0x24, 0x21, 0x04,
    0xcb, 0x2b, 0xa2, 0xb6, 0xd1, 0x53, 0xfd, 0x3e, 0x25, 0xd7, 0x1c, 0x06,
    0x2a, 0x3e, 0xb7, 0xbb, 0x46, 0xff, 0x05, 0xf3, 0x37, 0x17, 0xe7, 0x1b,
    0xdc, 0xfd, 0xd3, 0x24, 0xd2, 0xd1, 0xa5, 0x1c, 0xa6, 0x0a, 0x3c, 0x38,
    0xee, 0xb4, 0x11, 0xdc, 0xe9, 0x16, 0xcc, 0xf3, 0x25, 0xf3, 0x11, 0x0b,
    0xff, 0xfa, 0xe0, 0xfb, 0xb3, 0xd1, 0xfd, 0x33, 0xc0, 0xb6, 0x2a, 0xde,
    0x3f, 0xde, 0xf5, 0x0b, 0x03, 0x05, 0xe7, 0x34, 0xd0, 0xd6, 0xf9, 0x40,
    0x0e, 0x30, 0x3f, 0x28, 0xec, 0xbe, 0x23, 0xe5, 0xd1, 0xf7, 0x5e, 0xc0,
    0x18, 0xe1, 0xf6, 0x07, 0x00, 0x18, 0x51, 0xfa, 0xee, 0x21, 0xd8, 0x14,
    0x1b, 0x2a, 0xcc, 0xe7, 0xd6, 0x24, 0xf7, 0x32, 0xcb, 0xea, 0x14, 0xff,
    0xdf, 0x31, 0xeb, 0x28, 0x0b, 0x12, 0x32, 0x29, 0x02, 0xfb, 0xd1, 0x0c,
    0x3c, 0x2d, 0x39, 0x2f, 0x21, 0x35, 0x21, 0xf2, 0xc8, 0xed, 0xd1, 0xf0,
    0x0b, 0x16, 0xe5, 0xeb, 0x0b, 0x15, 0xe9, 0x08, 0xfa, 0x1e, 0xe4, 0xed,
    0xf1, 0xd3, 0x0c, 0x2d, 0x1d, 0x46, 0xfb, 0x09, 0xec, 0xfd, 0xfb, 0x32,
    0xf5, 0xec, 0xd4, 0x22, 0xf3, 0x02, 0xfb, 0x11, 0xf6, 0xf4, 0x01, 0xe2,
    0x10, 0x2e, 0xc8, 0xc9, 0x0a, 0xfb, 0x2f, 0xbb, 0x0a, 0xf2, 0x34, 0xec,
    0xd3, 0x4a, 0xd9, 0xcd, 0x49, 0x20, 0xe6, 0x2c, 0x1b, 0x2a, 0x2e, 0x24,
    0x12, 0x14, 0x09, 0xf3, 0xf0, 0xda, 0xb6, 0xfa, 0x3b, 0x12, 0x22, 0x1b,
    0x00, 0xe3, 0xf0, 0x2c, 0xeb, 0xb9, 0x0c, 0xc4, 0x1f, 0x11, 0xb4, 0xfa,
    0x00, 0xe4, 0x1c, 0x0d, 0x16, 0x04, 0xd5, 0xd9, 0x0a, 0x30, 0xed, 0x0e,
    0x2d, 0xe0, 0xf1, 0xfb, 0x1a, 0xc0, 0x15, 0x14, 0xef, 0xc7, 0x00, 0xfd,
    0x7f, 0x04, 0x37, 0x0f, 0x0e, 0x13, 0xd9, 0x1c, 0xca, 0xf3, 0x0b, 0xee,
    0xba, 0x2d, 0x32, 0x28, 0x51, 0xe5, 0xd2, 0xc8, 0xbd, 0x1f, 0xba, 0x36,
    0xe8, 0x16, 0xe4, 0xe0, 0xed, 0xf9, 0x39, 0xd0, 0x02, 0xd9, 0xd3, 0x35,
    0xc9, 0xf9, 0x0e, 0x28, 0x15, 0x21, 0x1f, 0x5a, 0x40, 0xf4, 0x16, 0xf6,
    0xd7, 0xea, 0xc4, 0xf3, 0xa8, 0x22, 0xd1, 0x68, 0x44, 0xde, 0xd0, 0xed,
    0xc2, 0xc4, 0xa1, 0xf4, 0x20, 0xe8, 0x17, 0x40, 0xec, 0xfe, 0x0e, 0x15,
    0x3c, 0xfd, 0x16, 0xd4, 0xfb, 0x02, 0x55, 0x11, 0x09, 0x31, 0x2e, 0xee,
    0x09, 0xc7, 0xad, 0xb4, 0x50, 0x58, 0xba, 0xfb, 0x2c, 0x75, 0x53, 0x0f,
    0x9b, 0xe0, 0xcc, 0x2d, 0xc9, 0x17, 0x06, 0xfa, 0x2e, 0x21, 0x07, 0x11,
    0x0a, 0xa4, 0x14, 0x01, 0x03, 0x0c, 0x30, 0xf7, 0x29, 0x5c, 0x3f, 0x25,
    0xf3, 0x66, 0xe2, 0x0c, 0x1b, 0xe7, 0xdd, 0x39, 0xc2, 0x39, 0xc9, 0x0e,
    0x37, 0x22, 0x20, 0xd3, 0xf4, 0xde, 0xd7, 0x1a, 0xf9, 0x23, 0xf0, 0x93,
    0x46, 0xf0, 0x2b, 0x4e, 0xa0, 0x36, 0xbe, 0xee, 0x38, 0x20, 0x1e, 0xec,
    0xad, 0x2d, 0x14, 0x51, 0x15, 0xe3, 0xe1, 0xdf, 0x43, 0x03, 0x81, 0x14,
    0x13, 0xd9, 0xc1, 0xff, 0xea, 0x4a, 0xbb, 0x45, 0xcd, 0xfc, 0xf4, 0x07,
    0x21, 0xd8, 0x31, 0xcd, 0xfc, 0x24, 0x0e, 0xda, 0x2b, 0xec, 0x14, 0x3d,
    0x60, 0xd2, 0xbb, 0xef, 0x11, 0x2e, 0x2c, 0x32, 0xf2, 0xc8, 0xfd, 0x22,
    0xd5, 0xd9, 0x2f, 0xac, 0xf0, 0x1b, 0xf1, 0x14, 0x5f, 0xa3, 0xd9, 0x34,
    0x06, 0xf3, 0xab, 0x81, 0xcb, 0x13, 0x05, 0x2c, 0xe1, 0x30, 0x19, 0x1d,
    0xe1, 0x00, 0x37, 0x2e, 0xc6, 0x3b, 0xc5, 0xf9, 0xfd, 0x28, 0x25, 0x09,
    0xbf, 0xc2, 0xbc, 0x0a, 0xd8, 0xa6, 0xa6, 0xb2, 0xbc, 0x3a, 0xfa, 0x22,
    0xde, 0x2d, 0x3e, 0xfb, 0x19, 0xcb, 0x2c, 0x09, 0xe3, 0xae, 0xe7, 0xbb,
    0x21, 0xbf, 0xf8, 0xd4, 0xfe, 0xcb, 0x19, 0x28, 0x44, 0x0b, 0x22, 0xce,
    0xba, 0xfe, 0x07, 0x24, 0xf6, 0x9f, 0xef, 0xc8, 0x98, 0xa3, 0xbd, 0xd7,
    0xcc, 0xb1, 0xb9, 0xbb, 0xcf, 0xf4, 0xf1, 0xb4, 0xfa, 0x0d, 0x02, 0x14,
    0xe5, 0xd6, 0xce, 0xc7, 0x17, 0x29, 0xd5, 0x0f, 0xe8, 0x28, 0x08, 0xf7,
    0x26, 0x1d, 0x07, 0xdc, 0x00, 0xbf, 0x57, 0xe7, 0xce, 0x8f, 0xfb, 0xde,
    0x0d, 0xd1, 0xe2, 0xfe, 0xce, 0x31, 0xb8, 0x25, 0x44, 0xe6, 0x35, 0x34,
    0x9d, 0xfa, 0xc6, 0x08, 0x09, 0xea, 0xf8, 0x2b, 0x38, 0x1a, 0xfe, 0xd7,
    0xe1, 0xde, 0x3c, 0xee, 0x29, 0x21, 0xcb, 0xcf, 0x16, 0x0f, 0xde, 0xfd,
    0x0f, 0xb3, 0xa6, 0x0d, 0xc7, 0x29, 0xe5, 0xee, 0x8e, 0xbd, 0xd2, 0xd0,
    0xb9, 0x17, 0xe4, 0x30, 0xb5, 0xf8, 0x28, 0xc4, 0xaa, 0xdb, 0xd3, 0x4a,
    0xee, 0xd7, 0x27, 0xeb, 0xf0, 0x1e, 0x09, 0x21, 0xbe, 0x1e, 0xea, 0xf1,
    0xfe, 0xcd, 0x29, 0x0d, 0xed, 0x22, 0x17, 0xf0, 0x30, 0xc4, 0x01, 0x2b,
    0xd2, 0xf8, 0xd2, 0x36, 0xdd, 0x37, 0xcd, 0xc1, 0xe6, 0x41, 0x1a, 0x05,
    0x26, 0xbe, 0x37, 0x20, 0x02, 0x12, 0xe7, 0xa7, 0x0d, 0x7f, 0x30, 0x25,
    0xda, 0x2f, 0xf1, 0xe4, 0xc7, 0xc9, 0xc4, 0xe9, 0xd8, 0xef, 0x3f, 0x00,
    0x06, 0x14, 0x1f, 0x13, 0x0d, 0xff, 0xf9, 0x3a, 0x19, 0xf1, 0xe9, 0xd6,
    0xe0, 0x27, 0xf8, 0xdd, 0xfa, 0xfb, 0xb9, 0xdf, 0x13, 0x2a, 0xb2, 0xdf,
    0xd7, 0x39, 0xd9, 0x2a, 0x12, 0xd3, 0x2f, 0x11, 0xe9, 0x08, 0xb9, 0x14,
    0xb9, 0x45, 0x1c, 0x1f, 0xdf, 0x2f, 0x19, 0x16, 0xee, 0xff, 0x52, 0xf7,
    0x17, 0xe0, 0x47, 0x25, 0x13, 0x31, 0xe2, 0x2f, 0xea, 0xfe, 0xf4, 0x1b,
    0xb6, 0xdb, 0xde, 0xee, 0x2e, 0x0c, 0x01, 0xfe, 0x04, 0x02, 0x3d, 0x28,
    0xde, 0xde, 0x29, 0x0f, 0x67, 0x28, 0x30, 0x02, 0xfd, 0x08, 0x1d, 0xf1,
    0xef, 0xe7, 0xfc, 0x07, 0x1e, 0x09, 0x2b, 0xff, 0x11, 0xfe, 0xec, 0xf1,
    0x4d, 0x0e, 0x04, 0xd3, 0x2b, 0xde, 0x11, 0x31, 0x2c, 0xe3, 0xf1, 0x09,
    0xc7, 0x0b, 0x01, 0xe8, 0x1f, 0xd5, 0x17, 0xfa, 0x13, 0x20, 0xe7, 0x30,
    0xb8, 0x51, 0xea, 0xd4, 0xdc, 0xc3, 0xf6, 0x07, 0x08, 0xd8, 0x12, 0x0f,
    0x27, 0xa5, 0x46, 0xf5, 0x0d, 0xe6, 0xfa, 0x26, 0x15, 0x56, 0xfe, 0x2d,
    0xbc, 0x2d, 0x06, 0x2b, 0xfb, 0xe3, 0xfc, 0xd2, 0xe0, 0x45, 0x16, 0xf6,
    0xde, 0x03, 0x11, 0xd5, 0x19, 0xf7, 0xf4, 0x1b, 0x15, 0xc2, 0xe2, 0xce,
    0xfb, 0xee, 0x15, 0x25, 0xd1, 0x17, 0xe4, 0xfb, 0x22, 0xfe, 0x44, 0x16,
    0x09, 0x2d, 0xca, 0xd6, 0x09, 0xe4, 0x35, 0xf4, 0x09, 0xcc, 0xb0, 0x1b,
    0x3c, 0x3b, 0x0a, 0x1f, 0x34, 0x2f, 0x02, 0x2d, 0x11, 0x8a, 0x37, 0x1e,
    0x26, 0xf5, 0x59, 0xbb, 0xea, 0xb0, 0x40, 0xe6, 0x31, 0xfa, 0xfe, 0x04,
    0xfa, 0x35, 0x2e, 0xc2, 0x10, 0x7f, 0x6a, 0xc6, 0x13, 0x12, 0xc9, 0x22,
    0x31, 0xce, 0x1a, 0xf4, 0x08, 0xe0, 0xe4, 0xde, 0x0a, 0xb3, 0xbd, 0xca,
    0x45, 0xf2, 0xe4, 0xf3, 0xb9, 0x9b, 0xe7, 0x0c, 0xf2, 0x24, 0x2d, 0xdf,
    0xc1, 0x3b, 0x0d, 0x49, 0x2b, 0xd1, 0xa7, 0xc8, 0x33, 0x14, 0x2e, 0x40,
    0x97, 0x2f, 0xf2, 0xeb, 0x4d, 0xe0, 0xd2, 0xed, 0xb9, 0x04, 0x4f, 0xf7,
    0xd4, 0xa6, 0x0a, 0x03, 0x53, 0xd9, 0xdd, 0xde, 0xae, 0xb3, 0xd4, 0x12,
    0x03, 0xde, 0x1a, 0x40, 0x17, 0xd5, 0x0f, 0x67, 0xe0, 0xfb, 0xd9, 0x4e,
    0xe8, 0x2c, 0xc1, 0xdb, 0xc7, 0x08, 0x0a, 0xc6, 0x2a, 0x09, 0xc1, 0xe2,
    0x33, 0xf8, 0xa9, 0x01, 0xfc, 0xd4, 0x24, 0xe3, 0x1a, 0xe2, 0x36, 0xfc,
    0xd0, 0x15, 0xf1, 0xce, 0x14, 0x1e, 0xdb, 0x23, 0xd6, 0xf5, 0x33, 0x48,
    0xfa, 0x2d, 0xea, 0x22, 0x26, 0x30, 0xd3, 0x42, 0x2d, 0x1f, 0xb8, 0xce,
    0xb9, 0xc4, 0xb7, 0x39, 0x42, 0xbf, 0xf7, 0x36, 0x1f, 0x63, 0x03, 0xef,
    0xf7, 0xd9, 0xfa, 0x48, 0xc1, 0xfb, 0x2c, 0x25, 0xe0, 0x01, 0xa6, 0xda,
    0x38, 0xe8, 0xfc, 0xd6, 0xd4, 0x2b, 0x2d, 0x1f, 0x01, 0x40, 0x16, 0x36,
    0xb8, 0x43, 0x38, 0xfb, 0xfb, 0xf4, 0x19, 0x57, 0x46, 0xac, 0x2c, 0xce,
    0xee, 0xfe, 0x1e, 0x09, 0x26, 0x2c, 0x2e, 0xda, 0x18, 0x2a, 0x09, 0xc0,
    0x30, 0x1e, 0xde, 0xf9, 0x39, 0xf1, 0x07, 0x3f, 0xda, 0xfc, 0x1a, 0x07,
    0x2a, 0xe1, 0x4e, 0x1f, 0xf1, 0xc5, 0xee, 0x41, 0xf6, 0x01, 0x3c, 0xf9,
    0xca, 0x08, 0x19, 0xea, 0xe4, 0x30, 0x04, 0xf8, 0xd6, 0xf7, 0x08, 0x38,
    0x1b, 0xe6, 0x58, 0xab, 0xe3, 0xd1, 0xe3, 0x10, 0x12, 0xf5, 0xeb, 0x2c,
    0x08, 0x20, 0xe4, 0x1a, 0x3d, 0x20, 0x49, 0x1c, 0xd5, 0x25, 0x17, 0x3e,
    0x1b, 0x26, 0x59, 0x04, 0x15, 0x29, 0xd7, 0xda, 0xf2, 0xff, 0xc8, 0x0e,
    0x05, 0x06, 0xe4, 0xe8, 0x37, 0x14, 0xf8, 0x22, 0x19, 0x00, 0xbd, 0xfe,
    0xee, 0x14, 0x02, 0xf2, 0x2b, 0xb2, 0x1f, 0xec, 0xf7, 0xfe, 0xd0, 0x3e,
    0x25, 0x4e, 0xb6, 0xd5, 0xb7, 0xf2, 0xd5, 0x15, 0x2e, 0xd8, 0x58, 0xe8,
    0x12, 0xc6, 0x14, 0xea, 0xd2, 0xdc, 0x5e, 0x3c, 0x37, 0xc8, 0x38, 0x13,
    0xdf, 0xdb, 0x26, 0x46, 0xfc, 0x13, 0xf7, 0xdb, 0xc0, 0xc9, 0xe6, 0xf0,
    0xfa, 0x29, 0x2f, 0xeb, 0xb2, 0xfd, 0x14, 0x49, 0xf4, 0x1c, 0xef, 0x18,
    0xce, 0x0f, 0xbe, 0xc2, 0xeb, 0x0a, 0x34, 0x03, 0x35, 0x13, 0xd3, 0xb4,
    0xca, 0x12, 0x4d, 0x30, 0xc3, 0x24, 0x48, 0xe8, 0xe6, 0x23, 0x60, 0xf2,
    0xc1, 0x27, 0xd3, 0xc6, 0x26, 0x02, 0xe0, 0xe9, 0x37, 0xf8, 0xea, 0x37,
    0xbe, 0xdf, 0x1a, 0x25, 0xdb, 0xdc, 0x0c, 0xea, 0xb5, 0x34, 0x02, 0x2b,
    0xfe, 0x15, 0x7f, 0xe9, 0x2c, 0xde, 0x3f, 0x06, 0xe0, 0xe3, 0xfc, 0x31,
    0xbc, 0x1e, 0x37, 0x08, 0xd2, 0x09, 0x3a, 0x35, 0x38, 0xf7, 0xf5, 0xd6,
    0x30, 0x4d, 0x3a, 0x24, 0x30, 0x0d, 0x27, 0x28, 0x0f, 0x49, 0xec, 0x2d,
    0x3b, 0x03, 0x2b, 0xf4, 0x3c, 0x0a, 0xed, 0xdc, 0xc1, 0xf3, 0xe1, 0xde,
    0x7f, 0x06, 0xfc, 0xfe, 0x43, 0x1d, 0x23, 0xc9, 0xd9, 0xf4, 0xea, 0x0f,
    0xd3, 0xfe, 0x2c, 0xe0, 0x06, 0x1c, 0xc1, 0x01, 0x3d, 0x3f, 0x2a, 0x01,
    0xf6, 0x2c, 0x37, 0xfb, 0x51, 0x42, 0xf2, 0x3f, 0x9b, 0x2e, 0x24, 0xc4,
    0x02, 0xed, 0xd1, 0x5e, 0x32, 0x4b, 0x22, 0xe7, 0xcd, 0xc3, 0xd8, 0x3d,
    0x0b, 0xfa, 0xf4, 0x16, 0xd4, 0x02, 0xcc, 0xeb, 0x38, 0x2c, 0x07, 0x17,
    0x1c, 0x31, 0x32, 0x12, 0x0c, 0x53, 0x01, 0x21, 0xe3, 0x00, 0xd5, 0xef,
    0xfc, 0xdf, 0xf5, 0x18, 0xfc, 0xd7, 0x01, 0x12, 0x3e, 0xea, 0x23, 0x11,
    0x15, 0xe6, 0xe4, 0xc1, 0xd1, 0x2a, 0x1a, 0xcf, 0x40, 0x2a, 0xed, 0x04,
    0xcf, 0xc0, 0xde, 0xee, 0xc2, 0xf9, 0xc4, 0x18, 0x63, 0xf5, 0x0f, 0x3d,
    0x33, 0xd9, 0xbc, 0x21, 0x2d, 0xfe, 0x20, 0xcd, 0xfd, 0xc3, 0xeb, 0x1c,
    0x13, 0xd0, 0xd3, 0xe4, 0xd2, 0xf0, 0x1f, 0x34, 0x0e, 0xe7, 0xe2, 0x0f,
    0xf3, 0x24, 0xc5, 0x09, 0x36, 0x3a, 0x03, 0xac, 0xdf, 0xe8, 0x17, 0x2f,
    0x17, 0x2f, 0xe3, 0xfb, 0x29, 0x96, 0xdd, 0xf0, 0xbb, 0x1c, 0x04, 0x44,
    0x44, 0xd8, 0xce, 0x14, 0xe4, 0x44, 0x2c, 0x15, 0x09, 0xe8, 0x1f, 0x03,
    0x16, 0x6f, 0xf6, 0xe9, 0xd9, 0x13, 0xe0, 0xc0, 0xc2, 0x95, 0x3f, 0x12,
    0x2b, 0x3e, 0xe8, 0x23, 0x2f, 0x01, 0x15, 0xc8, 0x23, 0x11, 0x38, 0xd0,
    0x49, 0x00, 0xdc, 0xfd, 0x26, 0x07, 0x17, 0x23, 0x43, 0x27, 0xd9, 0x2b,
    0xc0, 0x3b, 0x1a, 0x91, 0x22, 0x0a, 0xdc, 0xd6, 0x20, 0xe7, 0xd2, 0xf1,
    0xc8, 0xf5, 0x4f, 0x34, 0x27, 0xd1, 0xea, 0x29, 0x20, 0x17, 0x1a, 0x01,
    0xeb, 0x14, 0x26, 0x11, 0xda, 0xeb, 0x88, 0x0d, 0x28, 0xdf, 0xd0, 0xc8,
    0xd7, 0x0c, 0xeb, 0x17, 0x98, 0x16, 0x35, 0x7f, 0xc5, 0x3c, 0x1b, 0x18,
    0xe7, 0x4a, 0x0b, 0xf7, 0xa7, 0xb9, 0xca, 0xfd, 0xf8, 0xf1, 0x08, 0x3c,
    0x37, 0x2c, 0xbf, 0x2e, 0x00, 0xe1, 0x35, 0x2c, 0xe0, 0x37, 0x4f, 0xc1,
    0x41, 0xfc, 0x27, 0xea, 0xf3, 0x42, 0x15, 0xe0, 0x17, 0xf0, 0x3e, 0xe3,
    0x05, 0xdb, 0xe1, 0xf6, 0xc1, 0x5a, 0x52, 0xf9, 0xc0, 0x15, 0xdf, 0x47,
    0x02, 0xe8, 0x52, 0xd3, 0xe7, 0xee, 0x23, 0x1c, 0x33, 0xd7, 0x17, 0x02,
    0x58, 0x4e, 0xec, 0xe0, 0x20, 0xe5, 0x2b, 0xd1, 0x0c, 0x34, 0xea, 0x2a,
    0x0e, 0x45, 0xe9, 0x4a, 0x2a, 0x1a, 0xf1, 0xac, 0xca, 0xf3, 0x18, 0x51,
    0x35, 0xed, 0xf9, 0x16, 0x0e, 0x44, 0x12, 0x0d, 0x04, 0xe3, 0xe3, 0x33,
    0x33, 0xf1, 0xe4, 0xbd, 0xd9, 0x0d, 0x53, 0x28, 0x2a, 0x03, 0x09, 0xe7,
    0xdc, 0xd6, 0xc9, 0xb4, 0x2d, 0x35, 0x05, 0x25, 0x56, 0xeb, 0xd4, 0x0e,
    0x38, 0xd0, 0xf9, 0x4b, 0x21, 0x3e, 0xc9, 0x3f, 0xf5, 0x04, 0x05, 0x11,
    0x3b, 0x1d, 0xab, 0x08, 0xc3, 0x0e, 0xde, 0x09, 0x0e, 0xfb, 0xf2, 0x10,
    0xd3, 0xe9, 0x1c, 0xdb, 0xc4, 0x24, 0xfb, 0x00, 0xfb, 0xfa, 0xea, 0xd8,
    0xf7, 0x1c, 0x0c, 0x1c, 0x54, 0xed, 0x2e, 0x31, 0xd6, 0xda, 0xfd, 0xd3,
    0x24, 0xee, 0x22, 0xfc, 0xfd, 0x04, 0xbf, 0xf6, 0xc4, 0x7f, 0xc3, 0x32,
    0xc7, 0x22, 0xc6, 0x0e, 0xea, 0xe8, 0xfd, 0x66, 0xe5, 0x11, 0xe8, 0xdd,
    0x1e, 0xd7, 0x0c, 0x21, 0x24, 0xc4, 0xee, 0xd9, 0xe5, 0x35, 0x37, 0x3b,
    0x09, 0xdc, 0xdc, 0x24, 0x30, 0x28, 0xd8, 0x27, 0xe9, 0xff, 0x9c, 0xcc,
    0x46, 0xd5, 0x10, 0x38, 0x00, 0x19, 0xc9, 0xd1, 0x20, 0xec, 0x16, 0xe8,
    0x01, 0x11, 0xfc, 0xf4, 0x0a, 0x1f, 0x18, 0xee, 0x25, 0x15, 0xc8, 0xd0,
    0xbd, 0xd7, 0xdd, 0x03, 0xc5, 0x25, 0xb2, 0xbc, 0x16, 0xe3, 0xd1, 0xee,
    0x38, 0xdf, 0x1e, 0xd2, 0xd0, 0x03, 0x09, 0x11, 0x17, 0x29, 0x00, 0xbf,
    0x14, 0xe7, 0x49, 0xf7, 0xae, 0x06, 0x2d, 0x4b, 0x25, 0x32, 0x51, 0xec,
    0xe4, 0x2a, 0x14, 0x12, 0xc7, 0x20, 0x1d, 0xf0, 0x31, 0xf0, 0x14, 0x2a,
    0xe2, 0xe2, 0x04, 0x39, 0x26, 0x06, 0x28, 0xef, 0x20, 0x2f, 0xf9, 0x1b,
    0x2d, 0xbc, 0x34, 0xf0, 0x34, 0x08, 0x1f, 0xf9, 0xd8, 0x37, 0xb2, 0x17,
    0x20, 0xe4, 0xe2, 0x37, 0xdf, 0x10, 0x13, 0x0a, 0x35, 0x27, 0x4c, 0x05,
    0xef, 0xbc, 0x12, 0xd5, 0xf5, 0xde, 0xf0, 0x15, 0x04, 0x01, 0xc5, 0xe5,
    0xe2, 0x2b, 0xb2, 0xce, 0xd9, 0x24, 0x20, 0x19, 0x93, 0x04, 0xb7, 0x35,
    0x3e, 0x4e, 0x48, 0x8c, 0xb7, 0xec, 0x33, 0xd1, 0x32, 0x2b, 0x46, 0x16,
    0xfe, 0x26, 0xfb, 0xef, 0x06, 0xe8, 0x31, 0xd7, 0x1a, 0x48, 0xaa, 0xa5,
    0x31, 0xee, 0xdf, 0xcc, 0xe8, 0x2f, 0x02, 0xcf, 0xcf, 0xdf, 0x1e, 0xf1,
    0x10, 0xed, 0xd9, 0x30, 0x42, 0x23, 0xfe, 0x36, 0x24, 0xfc, 0xb0, 0xcd,
    0xec, 0xe4, 0xdd, 0x64, 0xfb, 0xea, 0x45, 0xd0, 0xf8, 0x21, 0x45, 0xba,
    0xe4, 0x30, 0x30, 0xfc, 0x2a, 0x38, 0x3a, 0xfc, 0x08, 0xec, 0xe0, 0x16,
    0x23, 0xf1, 0xe0, 0xbe, 0xce, 0x61, 0x4f, 0x13, 0x41, 0x99, 0xb1, 0x21,
    0xbb, 0x44, 0xfa, 0x66, 0xc9, 0xd2, 0xa8, 0x33, 0x1f, 0x01, 0xa6, 0xee,
    0xda, 0x14, 0xef, 0x03, 0xc5, 0xbc, 0x6e, 0x18, 0x31, 0xf7, 0x68, 0xb4,
    0xea, 0xfa, 0x1d, 0x38, 0x0f, 0x22, 0x01, 0x69, 0xd4, 0x28, 0xfb, 0x5e,
    0x53, 0x0b, 0x1e, 0xb3, 0xe9, 0x51, 0xa5, 0xdd, 0x10, 0xf7, 0x17, 0x26,
    0x35, 0xc1, 0x27, 0xe2, 0xfa, 0x2b, 0x28, 0xe6, 0xc0, 0x7b, 0xf8, 0xcc,
    0x17, 0xd4, 0xa9, 0x13, 0xc0, 0x97, 0xba, 0xce, 0x01, 0xf1, 0x60, 0x10,
    0xe0, 0x66, 0x00, 0x06, 0xb5, 0xce, 0xfa, 0x24, 0xeb, 0xd6, 0x5e, 0xe7,
    0x46, 0x1e, 0xaf, 0x03, 0x43, 0x39, 0x04, 0x69, 0xf6, 0x7f, 0x56, 0xfb,
    0x45, 0x1c, 0x39, 0x35, 0x43, 0x1f, 0x19, 0xf7, 0xda, 0x4e, 0x3c, 0x11,
    0x36, 0xa7, 0x0b, 0x11, 0xf6, 0xdd, 0x0c, 0x9e, 0xf3, 0x3e, 0x09, 0x2e,
    0x44, 0x71, 0x9e, 0xea, 0xf8, 0x28, 0xe1, 0x0c, 0xcd, 0xd6, 0x0c, 0xee,
    0xc4, 0xfe, 0xe6, 0xbb, 0xd6, 0x3b, 0x0d, 0xcf, 0xef, 0x35, 0xeb, 0x0a,
    0xea, 0xca, 0xf5, 0x31, 0xc9, 0x2a, 0xed, 0x6b, 0xe0, 0x24, 0x08, 0xee,
    0x11, 0x18, 0x13, 0x43, 0xea, 0xc2, 0xe3, 0x20, 0x35, 0x19, 0xe9, 0x1d,
    0xfe, 0x1f, 0x34, 0x04, 0x0f, 0x01, 0xce, 0xf2, 0x2d, 0x04, 0x1c, 0xf8,
    0xe0, 0x29, 0xcc, 0x41, 0xd3, 0x49, 0xdd, 0x01, 0x4f, 0x1f, 0x44, 0xfa,
    0x2a, 0x38, 0xde, 0xdd, 0x26, 0x5c, 0x39, 0xd5, 0xf3, 0x16, 0x0e, 0xf8,
    0x1a, 0x4b, 0x9b, 0x00, 0xb6, 0xe1, 0x07, 0x0f, 0xbf, 0xba, 0xbe, 0x65,
    0x3e, 0x02, 0x3b, 0xd6, 0x28, 0x0f, 0xd4, 0x0d, 0x3f, 0xf3, 0xb8, 0x44,
    0xfb, 0x5c, 0x21, 0x13, 0x56, 0xe9, 0x03, 0x57, 0x61, 0x09, 0x62, 0xc6,
    0x35, 0x69, 0x37, 0x11, 0xfd, 0xc8, 0xc0, 0x01, 0xfa, 0xdc, 0x14, 0x26,
    0xe3, 0xe9, 0x4b, 0x50, 0x01, 0xde, 0x0b, 0x0c, 0x13, 0xf6, 0x01, 0x17,
    0x00, 0x00, 0x5d, 0x5b, 0x0d, 0xc1, 0x12, 0xf8, 0x08, 0x6f, 0x7f, 0x22,
    0x3d, 0x11, 0x01, 0xf8, 0x5e, 0x3e, 0x05, 0xec, 0x0a, 0xed, 0x22, 0xcd,
    0x3b, 0x15, 0x11, 0xd7, 0xe7, 0xf4, 0x18, 0xf6, 0xf2, 0xab, 0xea, 0xdc,
    0x5d, 0x52, 0x5c, 0xe3, 0x55, 0x33, 0x3b, 0x19, 0xb8, 0x00, 0xd4, 0x14,
    0xe3, 0xff, 0xbe, 0x18, 0x16, 0x2e, 0x1a, 0x32, 0xe1, 0x4f, 0xfa, 0x09,
    0x01, 0x1d, 0x21, 0xea, 0x15, 0x16, 0x2d, 0xd9, 0x06, 0x24, 0x46, 0x22,
    0x08, 0x2f, 0xd6, 0xec, 0x15, 0x0e, 0xda, 0x34, 0x2f, 0x06, 0xf8, 0xf7,
    0x03, 0xe5, 0xcf, 0x08, 0xf9, 0x14, 0x23, 0xef, 0xc9, 0x3d, 0x38, 0xfe,
    0x21, 0xbd, 0xf7, 0xf6, 0x31, 0xda, 0xc8, 0x13, 0x21, 0xc6, 0x5c, 0x38,
    0x0d, 0xfa, 0xe3, 0x48, 0xe9, 0xf1, 0x32, 0x1b, 0x37, 0x14, 0xe1, 0x31,
    0x27, 0x1d, 0x36, 0xf0, 0x5f, 0x02, 0xfe, 0xff, 0x21, 0xf9, 0xe5, 0xee,
    0xfc, 0x20, 0x36, 0x0e, 0xb0, 0x44, 0x0e, 0xe4, 0xfe, 0xcb, 0x1e, 0x03,
    0xef, 0x1c, 0x01, 0x05, 0x46, 0xc1, 0xfe, 0xe6, 0xe3, 0xd0, 0x0b, 0xf1,
    0xd6, 0x7f, 0xfd, 0xfb, 0x2b, 0x09, 0xef, 0xd7, 0x0a, 0xef, 0xed, 0x09,
    0x38, 0xf7, 0x64, 0x4e, 0x2c, 0x4a, 0x30, 0xdd, 0x04, 0x0d, 0xef, 0x27,
    0xe8, 0x09, 0xd5, 0xe6, 0x21, 0x1c, 0xd6, 0x0a, 0xcb, 0xf3, 0x07, 0xff,
    0xe1, 0xd5, 0x1f, 0x1e, 0xe4, 0x0e, 0x3c, 0x2b, 0xf6, 0xd2, 0xe1, 0xd4,
    0xf4, 0xeb, 0xc1, 0x21, 0x1b, 0x04, 0x35, 0x10, 0xf7, 0x13, 0xba, 0x35,
    0xfb, 0xc0, 0xff, 0xe6, 0xd8, 0xf6, 0xbc, 0x1c, 0xfa, 0x2b, 0xf9, 0x09,
    0x2e, 0xd2, 0xe7, 0x22, 0xe0, 0x44, 0xfb, 0x3e, 0xe7, 0x37, 0x31, 0x26,
    0xc5, 0x26, 0x3d, 0x0d, 0xe8, 0xca, 0xb6, 0x19, 0x27, 0xd0, 0x00, 0x16,
    0x29, 0xf2, 0x06, 0xe9, 0xe5, 0xd5, 0x07, 0xdc, 0x33, 0x29, 0xca, 0x24,
    0xce, 0x1e, 0xee, 0xf1, 0xcb, 0x2c, 0x17, 0x05, 0xe4, 0x3d, 0xff, 0x39,
    0xf4, 0xce, 0x13, 0x46, 0x1e, 0x16, 0xc2, 0x30, 0x37, 0x2f, 0xc4, 0x06,
    0xc9, 0xcf, 0xd0, 0xf2, 0xf6, 0x37, 0x0f, 0xf2, 0x13, 0x2b, 0xd7, 0xe8,
    0xcd, 0x2d, 0x4a, 0x25, 0x0f, 0x3b, 0xe0, 0xee, 0xdf, 0xc6, 0xe3, 0xed,
    0xf1, 0xe7, 0x64, 0x0e, 0xe2, 0x02, 0xf0, 0x1c, 0x0f, 0xd8, 0x27, 0xff,
    0x2f, 0x28, 0xf8, 0xea, 0xfb, 0x2a, 0x25, 0xf0, 0x3d, 0xff, 0xe7, 0xd4,
    0xcd, 0xfa, 0xdc, 0xef, 0xdd, 0x0f, 0xf3, 0xf6, 0x4b, 0x0f, 0xd3, 0xe8,
    0xe1, 0x0c, 0x08, 0x38, 0x39, 0x05, 0x27, 0xd4, 0xe0, 0x14, 0x2f, 0xf4,
    0x62, 0x0b, 0x0e, 0xde, 0x2a, 0x02, 0x00, 0x15, 0xf4, 0x27, 0x3c, 0x46,
    0xe5, 0x08, 0xd7, 0x17, 0xf3, 0x51, 0xc9, 0xe1, 0x22, 0x19, 0x02, 0xe4,
    0x3e, 0xfc, 0x08, 0xe4, 0x05, 0xbf, 0xd1, 0x67, 0xd5, 0xe8, 0xba, 0x1d,
    0x22, 0x04, 0x10, 0x44, 0xce, 0xd5, 0x0c, 0xe9, 0x56, 0x4a, 0x40, 0x20,
    0xdc, 0xf2, 0xb7, 0x28, 0x81, 0x90, 0xf1, 0xe4, 0xdc, 0xc9, 0x5b, 0x2c,
    0x1a, 0x27, 0xcf, 0x1c, 0xf4, 0x1b, 0xec, 0x24, 0x02, 0xa4, 0x6b, 0x23,
    0x0c, 0xc6, 0x1f, 0x0d, 0x7c, 0xd1, 0xb6, 0xd5, 0x03, 0xa0, 0xfa, 0x06,
    0xd9, 0x13, 0xbb, 0xc8, 0x20, 0xf9, 0xf4, 0xb0, 0xad, 0xe8, 0x52, 0x45,
    0xe7, 0xed, 0xd5, 0x05, 0xe8, 0xba, 0x1c, 0xf4, 0xfe, 0xa9, 0x0f, 0x24,
    0x24, 0xa7, 0xf3, 0xd0, 0xb8, 0xdb, 0xdb, 0xbb, 0x0f, 0xc0, 0xf9, 0x32,
    0xe3, 0x0e, 0x98, 0x24, 0xe1, 0x1a, 0xd5, 0x11, 0x34, 0xbb, 0xb1, 0x02,
    0x32, 0xf0, 0xe7, 0x06, 0xb3, 0x15, 0x37, 0x48, 0xef, 0x0a, 0x1e, 0x2e,
    0x06, 0xba, 0x1e, 0xd8, 0xdb, 0xd6, 0xdc, 0x14, 0x5e, 0xbc, 0x54, 0x31,
    0xc6, 0x01, 0xed, 0x28, 0xf1, 0xb3, 0xc4, 0xf3, 0x00, 0xf4, 0xfb, 0x30,
    0xc6, 0xd2, 0xee, 0xd8, 0xc9, 0x3c, 0x40, 0x36, 0x48, 0x00, 0x25, 0xc5,
    0x17, 0xe3, 0xf5, 0x27, 0xec, 0xfa, 0x15, 0xf4, 0xb9, 0x51, 0x1b, 0x52,
    0x0f, 0x96, 0x2d, 0x4c, 0x2d, 0x19, 0x03, 0xb1, 0xbe, 0x51, 0x4b, 0xc8,
    0xa2, 0xce, 0x31, 0x5d, 0xec, 0x51, 0xb4, 0xef, 0x06, 0x5b, 0x34, 0x7f,
    0x4a, 0x1f, 0xf5, 0x28, 0x1c, 0xf6, 0x05, 0x29, 0xae, 0xd3, 0x49, 0xc9,
    0xd2, 0xc6, 0x2c, 0xb3, 0xd1, 0xd4, 0x8e, 0x0b, 0xee, 0x18, 0x9d, 0xbc,
    0xaf, 0x25, 0x34, 0xdb, 0x24, 0x33, 0x32, 0x12, 0xdd, 0xb2, 0xe5, 0x31,
    0xf8, 0xf7, 0x77, 0x5e, 0xf4, 0xc9, 0x86, 0x9c, 0x1d, 0x55, 0xe1, 0x62,
    0xf6, 0x0e, 0x2f, 0xdb, 0x3b, 0x4d, 0xb6, 0xc3, 0x3a, 0x29, 0xaa, 0xee,
    0xde, 0xb0, 0x2b, 0xfd, 0xd0, 0xce, 0x32, 0x9d, 0xe9, 0xbf, 0x11, 0x3d,
    0x94, 0xd7, 0x1d, 0x69, 0xf9, 0x08, 0x0f, 0xea, 0xd4, 0x9f, 0xce, 0xcc,
    0x3c, 0x0f, 0x2e, 0x36, 0xd3, 0x11, 0x48, 0x31, 0x2b, 0xc1, 0x52, 0x18,
    0x2c, 0xe7, 0xca, 0x48, 0xe5, 0x1b, 0x35, 0x0f, 0xc8, 0x1c, 0x06, 0x49,
    0xe8, 0xd4, 0xb3, 0xdb, 0x30, 0xd4, 0xae, 0xf8, 0xf5, 0x0d, 0x24, 0xc8,
    0x37, 0xde, 0xc6, 0xed, 0x17, 0x48, 0x33, 0x05, 0xf2, 0x88, 0x10, 0x7f,
    0x28, 0xe8, 0xdc, 0xcf, 0xdb, 0xb6, 0x07, 0xdc, 0xcc, 0x45, 0xfd, 0x47,
    0xc4, 0xb8, 0xdb, 0x03, 0xe3, 0x25, 0x46, 0x02, 0x1e, 0xb0, 0xd5, 0x9e,
    0xf5, 0xb1, 0xf7, 0x26, 0xf7, 0xf9, 0x31, 0x55, 0x26, 0x76, 0xda, 0xc5,
    0xbe, 0xac, 0x7a, 0x39, 0xf1, 0xf1, 0x14, 0x33, 0xd0, 0x11, 0x1e, 0xfc,
    0x08, 0xbf, 0x1f, 0x98, 0x97, 0xeb, 0x1c, 0x14, 0x6d, 0x65, 0x26, 0xf9,
    0x0d, 0x19, 0x92, 0xd2, 0xd3, 0x38, 0x64, 0x3f, 0xe7, 0x58, 0x47, 0xfe,
    0x5a, 0xde, 0xd8, 0xb8, 0x26, 0x66, 0x2b, 0xbe, 0xf1, 0x2a, 0x19, 0xda,
    0x8c, 0xc4, 0xd2, 0x29, 0x00, 0x30, 0x10, 0xe9, 0x5a, 0x3c, 0x05, 0x4c,
    0x12, 0xee, 0xd0, 0x17, 0x92, 0xd0, 0xd5, 0x3a, 0x3b, 0x52, 0xe0, 0xec,
    0xe7, 0xfa, 0xd6, 0x56, 0x02, 0xaf, 0xd4, 0xb1, 0x4f, 0x0b, 0x38, 0xe0,
    0x96, 0x30, 0x13, 0x05, 0x38, 0xf3, 0xa0, 0xda, 0xef, 0x13, 0x2c, 0xcc,
    0x1f, 0xfa, 0xfd, 0xfc, 0x1b, 0xef, 0xe8, 0x05, 0xc1, 0x9c, 0x1d, 0xb1,
    0xff, 0xfd, 0x1e, 0xf1, 0x4f, 0x13, 0x03, 0xc9, 0xf9, 0x22, 0xc3, 0x0c,
    0x32, 0xdd, 0x17, 0xc2, 0x04, 0x26, 0x54, 0xf3, 0xc9, 0xbf, 0xda, 0xcf,
    0x41, 0x27, 0x11, 0x0c, 0xf4, 0xfc, 0xe5, 0x29, 0x2f, 0x17, 0xe9, 0x41,
    0x4c, 0x17, 0x26, 0xfe, 0xca, 0x0c, 0xe2, 0x1d, 0xfa, 0xe9, 0xba, 0x0c,
    0x46, 0xe7, 0xde, 0x0f, 0x8c, 0x39, 0x3e, 0x10, 0x97, 0xae, 0x0e, 0x47,
    0xed, 0xd9, 0x10, 0x45, 0x57, 0xe4, 0x01, 0x64, 0x54, 0xaf, 0xe5, 0x5f,
    0xdc, 0x08, 0x10, 0xf2, 0x88, 0xe3, 0x69, 0xd2, 0x44, 0xf3, 0xe4, 0x09,
    0xcc, 0x1a, 0xff, 0xe1, 0xdd, 0xf0, 0xf3, 0xff, 0xb6, 0x0d, 0x3a, 0xd1,
    0xc5, 0xd9, 0xcb, 0xc2, 0x52, 0x36, 0x37, 0x79, 0xc3, 0xe8, 0xd2, 0x43,
    0x01, 0x2a, 0xf8, 0xc7, 0xeb, 0xda, 0x0a, 0xcc, 0xb2, 0x1d, 0xa2, 0x2e,
    0x72, 0xa4, 0xea, 0xfd, 0xd6, 0x0b, 0xe7, 0x1d, 0xec, 0x55, 0xc1, 0xc4,
    0x01, 0x32, 0x65, 0xf7, 0xee, 0x1e, 0x01, 0xb4, 0x40, 0xe6, 0x2c, 0x99,
    0xb9, 0x39, 0xb7, 0x39, 0xd8, 0xe6, 0x15, 0xfd, 0x8c, 0x11, 0xf1, 0x41,
    0xeb, 0x02, 0x0b, 0x39, 0x35, 0xfa, 0xeb, 0xd8, 0x44, 0xfe, 0x9e, 0xbe,
    0x11, 0x14, 0x33, 0x4c, 0x49, 0xc1, 0x55, 0x22, 0xde, 0xdf, 0xa7, 0x07,
    0xc8, 0x11, 0x06, 0x7f, 0x8a, 0xdb, 0xdd, 0xdb, 0x31, 0x4e, 0x92, 0xc9,
    0xbe, 0xf2, 0x24, 0xdc, 0xf4, 0x05, 0xe6, 0x09, 0xf4, 0x0c, 0xd0, 0x00,
    0xe7, 0x1e, 0xfe, 0xad, 0xcf, 0xc3, 0xbf, 0x26, 0xc4, 0x54, 0x5b, 0xee,
    0x91, 0x04, 0x99, 0xcf, 0xdf, 0x30, 0xf0, 0xb5, 0xf8, 0x06, 0xf5, 0xdf,
    0x5c, 0xaa, 0x8a, 0x3b, 0x30, 0xed, 0x09, 0xc3, 0x50, 0xea, 0xea, 0xf8,
    0xe5, 0x19, 0x12, 0xf0, 0xf9, 0x26, 0x39, 0xde, 0xe6, 0x38, 0x34, 0x5a,
    0xf3, 0x36, 0x3d, 0xbf, 0x44, 0x2d, 0x1d, 0x59, 0x17, 0xbd, 0x5d, 0xad,
    0xd3, 0x33, 0xdd, 0xfc, 0x1a, 0x26, 0x29, 0xf1, 0x15, 0x04, 0xaa, 0xc9,
    0xc6, 0xc4, 0xc8, 0xed, 0xe5, 0x5f, 0x07, 0x19, 0x5a, 0xe0, 0x1b, 0xce,
    0x34, 0x1a, 0xf5, 0x40, 0x1f, 0x5f, 0x1e, 0x7f, 0x08, 0xe5, 0xfc, 0xd6,
    0xa0, 0xd3, 0x5d, 0x3a, 0xce, 0xd4, 0x58, 0xed, 0x1d, 0x49, 0x32, 0xae,
    0xf3, 0x1d, 0x2f, 0x2a, 0x59, 0xb9, 0x10, 0x54, 0xfe, 0xca, 0xbe, 0x07,
    0xf9, 0x19, 0x1d, 0x55, 0xe1, 0x36, 0x4d, 0x3c, 0x18, 0x33, 0x0c, 0x4e,
    0xe8, 0x5f, 0x6c, 0x1f, 0xf5, 0xe7, 0x62, 0xb8, 0x2e, 0x98, 0xe1, 0xbe,
    0xb2, 0x3d, 0x21, 0x25, 0xd1, 0x20, 0x9c, 0x3e, 0x41, 0x04, 0xef, 0x38,
    0x25, 0xc0, 0x19, 0x98, 0xd9, 0xae, 0xfb, 0x41, 0x07, 0xf2, 0x22, 0xe6,
    0xf7, 0x2d, 0xe6, 0xdf, 0x4f, 0x39, 0xc5, 0x46, 0x1a, 0xc4, 0xaa, 0x69,
    0x1a, 0x00, 0x01, 0x1c, 0xfc, 0x14, 0xbb, 0x18, 0xb9, 0xdd, 0x53, 0x2f,
    0xb7, 0x45, 0x2f, 0xc2, 0xd5, 0xd9, 0xcd, 0xbb, 0x29, 0xe9, 0x59, 0xaf,
    0x32, 0xc7, 0x78, 0x17, 0x29, 0x26, 0xc6, 0xd5, 0x49, 0x2e, 0x31, 0x34,
    0x1a, 0xfb, 0x14, 0xa0, 0x24, 0xe6, 0x4d, 0xf7, 0x32, 0x61, 0x37, 0x92,
    0x09, 0xd8, 0xc7, 0xfd, 0x3b, 0x16, 0xdf, 0x56, 0xf6, 0xb7, 0x5e, 0xe8,
    0x08, 0xe7, 0xd9, 0xca, 0xf1, 0x2c, 0xd0, 0xe8, 0xe6, 0xfb, 0xbf, 0x1e,
    0xfa, 0xf3, 0x04, 0xcd, 0xc9, 0x10, 0xc3, 0xff, 0xf4, 0x24, 0x25, 0x15,
    0x08, 0x08, 0xfe, 0xdc, 0xfa, 0xc5, 0xfb, 0xfb, 0xe3, 0xfd, 0xe7, 0x3b,
    0xed, 0xf3, 0x05, 0xfa, 0x28, 0xf0, 0x00, 0x1f, 0x33, 0xfb, 0x2f, 0xd6,
    0x34, 0x3c, 0x3a, 0xff, 0x08, 0xee, 0xd4, 0x18, 0x3c, 0xe2, 0x0b, 0x03,
    0xf8, 0x1a, 0x2d, 0x18, 0x12, 0xd7, 0xdc, 0xfe, 0x1e, 0x2a, 0x7f, 0x2e,
    0xfb, 0xe0, 0xfb, 0xdb, 0xec, 0xe3, 0xf6, 0x1a, 0xf7, 0xdd, 0xf2, 0x36,
    0x1f, 0xe4, 0x1e, 0xf5, 0x13, 0x0f, 0xec, 0xeb, 0xe4, 0x09, 0xe7, 0xe4,
    0x11, 0xf3, 0xe8, 0xf7, 0xef, 0x31, 0xfb, 0x03, 0x1a, 0xf6, 0xf7, 0x05,
    0xfd, 0x46, 0x0c, 0x14, 0x2a, 0x20, 0x1f, 0xf9, 0x24, 0x2d, 0x27, 0xf6,
    0x0f, 0x0a, 0x23, 0xf6, 0x06, 0x1d, 0x25, 0x0d, 0x0b, 0xf6, 0xed, 0x3c,
    0x22, 0x24, 0x09, 0xef, 0x14, 0x04, 0xfb, 0xf8, 0xe1, 0xfc, 0x10, 0x0b,
    0xe2, 0x1e, 0x1e, 0xf5, 0xe9, 0x20, 0x01, 0x08, 0xf3, 0x17, 0x44, 0x09,
    0xe2, 0x0f, 0x1c, 0xf9, 0xf4, 0x02, 0x23, 0x18, 0x03, 0x2d, 0xf2, 0x0a,
    0x03, 0x1d, 0x22, 0xca, 0x1e, 0x2d, 0x00, 0x0e, 0x0a, 0xe8, 0xe6, 0x0c,
    0x19, 0xea, 0x05, 0xbb, 0x21, 0x0e, 0xd8, 0x2d, 0x23, 0xd9, 0x1c, 0xdc,
    0xac, 0xea, 0xfe, 0xe1, 0xd6, 0x15, 0x19, 0x1c, 0x2a, 0x1c, 0x20, 0x19,
    0x29, 0x1f, 0xfb, 0x1e, 0xf7, 0xe6, 0xfb, 0x05, 0x0d, 0xb2, 0x09, 0x12,
    0xe8, 0x27, 0xd6, 0xe0, 0xd8, 0x47, 0xda, 0xfa, 0x11, 0x0a, 0xc1, 0xf3,
    0xe8, 0xfa, 0xda, 0x09, 0x08, 0xfd, 0x39, 0x47, 0x17, 0xfc, 0x28, 0x3a,
    0xf7, 0x11, 0x00, 0x17, 0xe0, 0x3d, 0x16, 0xe2, 0x23, 0x1f, 0xf7, 0x2e,
    0x4b, 0x05, 0x25, 0xe1, 0x20, 0xf0, 0x08, 0x2a, 0x01, 0xd9, 0x29, 0xfc,
    0xe6, 0x42, 0x43, 0xe1, 0xed, 0xf3, 0x10, 0xf7, 0x22, 0x32, 0x1c, 0xe2,
    0xc3, 0x1b, 0x0d, 0x14, 0xc5, 0xd5, 0xe8, 0x1c, 0x03, 0xf6, 0xbd, 0x03,
    0xe3, 0x0c, 0x10, 0x48, 0x2d, 0xe6, 0x1d, 0x45, 0x2a, 0xe1, 0x19, 0xcd,
    0x00, 0xbf, 0xbf, 0x16, 0x7f, 0x20, 0xd3, 0xd8, 0x0f, 0x1a, 0xe4, 0x0b,
    0xed, 0xf0, 0xcd, 0xf8, 0xfa, 0xcf, 0x31, 0x1f, 0x30, 0x42, 0x1e, 0x32,
    0x00, 0x1a, 0xc5, 0x0c, 0x17, 0xd2, 0x5b, 0xed, 0x3f, 0xdf, 0xe8, 0xef,
    0x17, 0x2f, 0x2b, 0x0f, 0x1f, 0x1e, 0x07, 0xb8, 0x00, 0x41, 0x52, 0xf8,
    0xf9, 0x2f, 0x2b, 0xff, 0x12, 0x32, 0xf9, 0x26, 0xe1, 0x3e, 0x2d, 0x06,
    0xde, 0xdd, 0x05, 0x0e, 0x12, 0x2b, 0xf2, 0x03, 0x2f, 0x35, 0xe7, 0x0c,
    0x02, 0x38, 0x21, 0xee, 0xec, 0xc8, 0x0f, 0x1d, 0xf1, 0xcb, 0x29, 0x06,
    0x1d, 0x1e, 0xf0, 0x0b, 0xfe, 0x25, 0x10, 0xf4, 0x09, 0x18, 0x09, 0xd7,
    0xf9, 0xf6, 0x32, 0x25, 0xc4, 0x42, 0xe8, 0x03, 0x18, 0xef, 0xfa, 0xfe,
    0x29, 0x1c, 0x1c, 0xea, 0xec, 0x2e, 0x1d, 0x0e, 0xf5, 0xe8, 0xd5, 0xf3,
    0x08, 0xf0, 0x2b, 0xf4, 0xd7, 0x24, 0xfc, 0x1c, 0xd4, 0xd1, 0x12, 0x2b,
    0x55, 0xba, 0x2b, 0x98, 0x0c, 0xf1, 0xb4, 0xf4, 0x5c, 0xf3, 0x4b, 0x17,
    0x6b, 0xbf, 0x6d, 0xcd, 0xfd, 0x30, 0xaf, 0xf3, 0xd3, 0xb6, 0x39, 0x7a,
    0xd9, 0x61, 0x39, 0x11, 0xe5, 0xa4, 0x34, 0x81, 0x61, 0x59, 0x35, 0xc2,
    0xdc, 0x28, 0x5d, 0x62, 0x1b, 0x2d, 0x27, 0x31, 0xe0, 0xb4, 0xf8, 0xd3,
    0x21, 0xbd, 0x04, 0x55, 0xc7, 0x2d, 0x34, 0x2b, 0xe4, 0xfe, 0xf8, 0x09,
    0xdb, 0x47, 0x0c, 0x70, 0x43, 0xec, 0xc0, 0x32, 0x3c, 0xf4, 0x17, 0xa3,
    0xba, 0xc7, 0x27, 0xe1, 0x83, 0x13, 0xf0, 0xce, 0xf2, 0xca, 0xbc, 0xad,
    0xfa, 0x56, 0xcd, 0xdc, 0x68, 0xbd, 0xcb, 0xc6, 0xb4, 0xc0, 0xec, 0xe1,
    0xd6, 0xad, 0xbc, 0xe3, 0x45, 0xcf, 0xda, 0xd9, 0x40, 0x43, 0x08, 0xa5,
    0x50, 0xe9, 0x72, 0x32, 0x0e, 0xdf, 0xf5, 0xb2, 0x0b, 0x2c, 0xe2, 0xfd,
    0x31, 0xf0, 0xf2, 0xfc, 0x55, 0xd3, 0x3e, 0xd3, 0xf3, 0xd2, 0x98, 0xd3,
    0x09, 0xdf, 0x59, 0x35, 0x27, 0xc2, 0xa8, 0xf9, 0x13, 0x24, 0x9a, 0xaf,
    0x0c, 0xdd, 0xc3, 0xff, 0x30, 0xc3, 0x3e, 0xdb, 0x3c, 0x44, 0xed, 0x06,
    0x27, 0xd9, 0xf3, 0xb1, 0x50, 0xb5, 0xf7, 0x6c, 0xaa, 0x72, 0x8c, 0xec,
    0xfe, 0x48, 0x39, 0xe3, 0xd9, 0xeb, 0x26, 0x8d, 0x17, 0x2a, 0x29, 0xd0,
    0xd8, 0xfa, 0xed, 0x15, 0x0c, 0x32, 0x20, 0x19, 0xe3, 0x4c, 0x2c, 0xba,
    0x0e, 0x21, 0x1c, 0x18, 0x25, 0x57, 0xd0, 0x3c, 0xed, 0x27, 0x43, 0xf1,
    0xd9, 0xc4, 0x03, 0xf8, 0xd4, 0xfa, 0xbc, 0x09, 0xf9, 0x45, 0xf1, 0xd4,
    0xde, 0xea, 0xa2, 0xec, 0x1e, 0x0b, 0xdf, 0xd8, 0x41, 0xff, 0x27, 0x1e,
    0xd9, 0x0c, 0xf5, 0x1d, 0xd8, 0x15, 0xe4, 0x17, 0x1f, 0xfa, 0xea, 0x14,
    0x26, 0x1c, 0xf8, 0xee, 0xdb, 0x15, 0x2d, 0x2c, 0x0e, 0xbe, 0xf9, 0x2d,
    0xf4, 0x3a, 0xee, 0x7f, 0xe4, 0xd2, 0x2a, 0x2f, 0xee, 0x5d, 0xd5, 0x26,
    0xef, 0x2a, 0x29, 0xc0, 0x33, 0xdc, 0x15, 0xad, 0x11, 0x8a, 0x20, 0x61,
    0x31, 0x28, 0x56, 0x24, 0xb1, 0x22, 0xe5, 0x0a, 0x2f, 0x21, 0xea, 0x1a,
    0xf4, 0x05, 0x15, 0x1a, 0x44, 0xcb, 0xa1, 0xe3, 0xea, 0xf2, 0xed, 0xe6,
    0x30, 0xdc, 0x4f, 0xff, 0x35, 0x3d, 0xc2, 0x5d, 0xf5, 0xe6, 0xdb, 0x34,
    0x08, 0x01, 0x1b, 0x2b, 0x09, 0xfa, 0x25, 0xf5, 0x3b, 0xf6, 0xc2, 0x19,
    0xd1, 0xf1, 0xd7, 0xf0, 0x1d, 0x08, 0x04, 0x0b, 0xed, 0xe4, 0xf8, 0xca,
    0xf1, 0x11, 0xc3, 0xcb, 0x02, 0x0e, 0xed, 0x0e, 0xfd, 0xed, 0x42, 0x38,
    0x0b, 0x21, 0x0b, 0x09, 0xfc, 0xe3, 0xe7, 0x09, 0x3b, 0x45, 0x2c, 0xba,
    0x10, 0x63, 0x2f, 0xf8, 0x37, 0xc8, 0x3e, 0xe5, 0x03, 0x2d, 0xf2, 0x14,
    0x04, 0x2d, 0xfe, 0x02, 0xea, 0x47, 0x22, 0x26, 0xf5, 0x30, 0xcf, 0xea,
    0xda, 0x1c, 0xf7, 0xca, 0x3d, 0x32, 0x19, 0x30, 0xbb, 0x38, 0x09, 0x19,
    0xfe, 0x49, 0xba, 0xcb, 0x38, 0xfd, 0x0b, 0x2a, 0x26, 0xe0, 0x19, 0x07,
    0xcf, 0xc3, 0x39, 0x41, 0xae, 0x11, 0x8d, 0x2a, 0x62, 0x31, 0x2a, 0xe3,
    0x18, 0x02, 0x3b, 0x1c, 0xdf, 0xdd, 0x31, 0x9f, 0xfc, 0xd7, 0xdf, 0xfa,
    0x01, 0x2b, 0x4d, 0xb4, 0xf6, 0xf4, 0xfc, 0x3a, 0xf5, 0x26, 0x26, 0xa9,
    0xa7, 0xcf, 0xf0, 0x1b, 0x2f, 0x0c, 0xf3, 0xf0, 0xff, 0x86, 0x81, 0xc5,
    0xc7, 0xe9, 0xcb, 0x3b, 0x00, 0xe2, 0x46, 0x8b, 0xeb, 0x92, 0x93, 0x18,
    0xc5, 0xe7, 0xef, 0xfa, 0x39, 0xcf, 0x3b, 0xf3, 0x4f, 0xed, 0x34, 0x26,
    0xc8, 0x98, 0xf8, 0xa2, 0x06, 0x0f, 0xcb, 0x00, 0xf5, 0xd5, 0x2e, 0x0a,
    0xeb, 0x43, 0x18, 0xe8, 0x19, 0xe1, 0xf5, 0x5e, 0x51, 0x0b, 0xe7, 0xf3,
    0xfd, 0x1d, 0xf3, 0x22, 0x09, 0x93, 0xad, 0xf7, 0x14, 0xde, 0x42, 0x2d,
    0xf5, 0xe4, 0x03, 0x07, 0xb5, 0x4e, 0xff, 0x26, 0xae, 0xc9, 0xe5, 0xd5,
    0x27, 0x41, 0x1d, 0x1e, 0xa6, 0x9b, 0x1c, 0x67, 0xf3, 0xb5, 0x49, 0x03,
    0xee, 0xe9, 0xc4, 0x31, 0xf7, 0xfc, 0xf3, 0x2f, 0xbc, 0xde, 0x26, 0xd5,
    0x24, 0xf2, 0x49, 0xdf, 0xd9, 0xd2, 0x38, 0xd0, 0x09, 0x22, 0x03, 0x20,
    0xbe, 0x17, 0xa3, 0x6a, 0x0f, 0x0e, 0x4f, 0xd5, 0x31, 0x3e, 0xe5, 0x06,
    0xfa, 0xbe, 0xdc, 0xcd, 0xf6, 0x10, 0x29, 0xcf, 0xe6, 0x1f, 0xe0, 0xed,
    0xce, 0xb6, 0x3b, 0x33, 0xc3, 0x31, 0x35, 0xc8, 0x30, 0xe1, 0x2f, 0xa1,
    0xba, 0xd7, 0x29, 0xf7, 0xac, 0xf2, 0xe1, 0x02, 0x08, 0x00, 0xe3, 0xe5,
    0xfd, 0xdb, 0x2c, 0xf7, 0x2d, 0x10, 0x1d, 0x3c, 0xed, 0xee, 0xd2, 0x48,
    0x37, 0xeb, 0xdc, 0x10, 0x28, 0x23, 0x17, 0xf4, 0x66, 0xe0, 0xf2, 0x06,
    0x20, 0xe5, 0xd8, 0x7e, 0xec, 0xfc, 0x03, 0xf9, 0x09, 0xb5, 0xdb, 0xf0,
    0x1e, 0xd2, 0x38, 0x1c, 0x04, 0xec, 0xbd, 0x0b, 0xd5, 0x0e, 0xd2, 0x0b,
    0xbb, 0xfd, 0xfb, 0xf1, 0x1c, 0xcd, 0x38, 0x2c, 0x02, 0x2e, 0x07, 0x0c,
    0x19, 0x32, 0xe6, 0xdc, 0x01, 0xe2, 0x3c, 0x09, 0xff, 0x3a, 0xd4, 0x1e,
    0xbd, 0x00, 0xc5, 0xee, 0xf7, 0x21, 0x10, 0xeb, 0x26, 0xeb, 0x44, 0xe1,
    0x11, 0xf5, 0xfc, 0xc9, 0x09, 0x15, 0x21, 0xe6, 0xff, 0x61, 0x0d, 0xf5,
    0x18, 0xe7, 0x4f, 0xf9, 0x10, 0xc7, 0x37, 0xd7, 0x1e, 0xab, 0x1e, 0x25,
    0x22, 0x1e, 0xd7, 0x02, 0xdc, 0x22, 0x08, 0xe0, 0xf5, 0x0e, 0x27, 0xf8,
    0x01, 0xdb, 0x22, 0x0e, 0x3b, 0xff, 0x32, 0x3c, 0x26, 0x15, 0x35, 0x1e,
    0x31, 0x2d, 0x03, 0x44, 0xc3, 0x17, 0xd7, 0x03, 0x17, 0x00, 0x31, 0xe9,
    0xd8, 0xf8, 0x3a, 0xeb, 0x16, 0xbc, 0x03, 0xdf, 0xf0, 0xfb, 0xc7, 0xf4,
    0xb7, 0xdd, 0xf7, 0xf4, 0x16, 0x00, 0x1b, 0x2c, 0xf9, 0xf3, 0x2e, 0x3e,
    0x11, 0x27, 0x04, 0xf0, 0x3e, 0xdd, 0x3b, 0x09, 0x2d, 0x0f, 0x39, 0xd3,
    0xff, 0xe9, 0x1d, 0xda, 0x2d, 0xe6, 0x02, 0xf6, 0xc7, 0xcc, 0x08, 0xe1,
    0x0f, 0xb7, 0xb7, 0xf3, 0x7f, 0x3a, 0xf1, 0xbd, 0xfc, 0x11, 0x00, 0x0b,
    0x1d, 0xdb, 0xc0, 0x33, 0xe0, 0x26, 0xe5, 0xb7, 0x34, 0xf4, 0x22, 0x69,
    0xd9, 0xca, 0xa6, 0x01, 0x0c, 0xd0, 0x21, 0xce, 0xe7, 0xf0, 0xe0, 0x1b,
    0xe8, 0x0f, 0xf4, 0x43, 0x02, 0xef, 0x06, 0x40, 0xf6, 0xe1, 0x33, 0x29,
    0x1b, 0x13, 0x00, 0x38, 0xe3, 0x03, 0xf9, 0xc5, 0x1f, 0x18, 0xe1, 0x4b,
    0x0a, 0xfb, 0xa3, 0x2e, 0xc6, 0x1f, 0xc7, 0xe5, 0xe4, 0x49, 0x30, 0x1a,
    0xdf, 0x28, 0x24, 0x23, 0xd2, 0xf9, 0xd4, 0x37, 0xd6, 0x09, 0xe4, 0x31,
    0x23, 0x39, 0xfa, 0x22, 0x06, 0x9e, 0x1b, 0x4c, 0x1f, 0x13, 0xcf, 0x77,
    0x52, 0x23, 0x00, 0x0c, 0xe9, 0xf0, 0x1a, 0xd7, 0xda, 0xf1, 0x53, 0xf9,
    0x22, 0x2f, 0x16, 0x0e, 0xe2, 0xdf, 0x32, 0x0f, 0xc7, 0x04, 0xa9, 0x28,
    0xcd, 0xe4, 0xe8, 0x13, 0xf0, 0xfb, 0x3f, 0x14, 0xd3, 0x3e, 0xb3, 0xb8,
    0x46, 0x23, 0xc7, 0xdb, 0xab, 0x26, 0x1f, 0x5a, 0xe2, 0xb6, 0x37, 0xa4,
    0xd9, 0xb9, 0x19, 0x5e, 0xfd, 0xe5, 0xc9, 0x3a, 0x07, 0xde, 0xee, 0xc8,
    0x42, 0xe2, 0x33, 0xfa, 0x5e, 0xba, 0x13, 0x31, 0x43, 0x0a, 0x2c, 0xd8,
    0x2c, 0x1e, 0x3d, 0x27, 0x54, 0xb9, 0xe9, 0xda, 0xd0, 0x45, 0x34, 0x41,
    0xf5, 0x20, 0xef, 0xe3, 0xda, 0x2e, 0x5c, 0xe9, 0xf5, 0x1f, 0x0b, 0x51,
    0x60, 0xe0, 0x41, 0x87, 0xb9, 0xb7, 0xfb, 0x7f, 0xe7, 0x53, 0xcd, 0x3e,
    0x4c, 0xf1, 0x9c, 0xef, 0x1b, 0x10, 0x3f, 0xf1, 0xf3, 0xf0, 0x41, 0xfc,
    0xd9, 0xdd, 0xad, 0xdc, 0xcb, 0xc2, 0x21, 0xb4, 0xe7, 0xa8, 0xf8, 0xe2,
    0xc8, 0xe3, 0xc3, 0xb2, 0x4a, 0xbe, 0xf8, 0x23, 0xd2, 0xd7, 0x4d, 0xd0,
    0x04, 0x43, 0xfb, 0xa2, 0x1b, 0xcb, 0x28, 0xbb, 0xc3, 0x18, 0x20, 0xd9,
    0x44, 0xe9, 0xd2, 0x41, 0xaf, 0xe3, 0xf9, 0x1f, 0xae, 0xde, 0xaa, 0x13,
    0x76, 0x5a, 0x31, 0x1d, 0x45, 0xb3, 0x79, 0x05, 0x07, 0x83, 0x5b, 0x42,
    0xd0, 0xf6, 0xca, 0x53, 0xdc, 0x42, 0xc6, 0xdb, 0xdb, 0x0f, 0x94, 0xe1,
    0x3f, 0x99, 0x2f, 0xe2, 0xf8, 0xe0, 0x1b, 0x41, 0xb5, 0x1f, 0xf8, 0xb1,
    0x03, 0x89, 0xf5, 0x1f, 0xab, 0x42, 0xfa, 0x01, 0xc9, 0x21, 0x2d, 0x14,
    0xa2, 0xee, 0x13, 0xf7, 0x3a, 0x36, 0xeb, 0xf1, 0xf2, 0xcd, 0xf6, 0xee,
    0x3c, 0xfe, 0xfb, 0xdd, 0xfd, 0x10, 0xdd, 0x4e, 0xe3, 0x1d, 0xd5, 0xda,
    0xf0, 0xb6, 0x50, 0x45, 0x2f, 0x53, 0x1a, 0x01, 0x13, 0x2f, 0x05, 0x01,
    0x6e, 0xfe, 0x9f, 0x24, 0x93, 0x14, 0x93, 0x59, 0xe6, 0xd7, 0xc5, 0xeb,
    0x32, 0xb8, 0xd1, 0x51, 0xe3, 0xbc, 0x2d, 0xfd, 0xfb, 0xe4, 0x37, 0xe7,
    0xe8, 0x4e, 0x96, 0x35, 0x17, 0xe5, 0xc9, 0xbe, 0x13, 0xeb, 0xea, 0x29,
    0xde, 0xe1, 0xdb, 0x40, 0xf1, 0xc6, 0xc8, 0xfa, 0x50, 0xe5, 0x6a, 0x2d,
    0x12, 0x61, 0xfb, 0x28, 0x3a, 0x20, 0xb1, 0x4c, 0xf4, 0xb2, 0xd8, 0xde,
    0xe7, 0xd0, 0x41, 0x04, 0x04, 0x54, 0x2e, 0xa3, 0xcf, 0x0b, 0xac, 0x1b,
    0x7f, 0x3d, 0xfd, 0x4f, 0x2a, 0xf7, 0xff, 0x64, 0x0a, 0xde, 0x30, 0x31,
    0xcf, 0xdb, 0x42, 0x10, 0x27, 0x00, 0x1f, 0x45, 0x0a, 0xf6, 0xee, 0xee,
    0xfe, 0xd9, 0x11, 0x16, 0x30, 0xf9, 0x33, 0xda, 0xf9, 0xda, 0x17, 0xa9,
    0x1f, 0x06, 0xbe, 0x60, 0x06, 0x1e, 0x0f, 0x02, 0xd5, 0x29, 0xf4, 0x01,
    0xe7, 0xe8, 0xe0, 0xed, 0x4b, 0x03, 0xfc, 0x31, 0xf7, 0xd1, 0x11, 0x10,
    0x41, 0x0c, 0x1f, 0xd9, 0xe3, 0xcb, 0x1a, 0xec, 0x1e, 0xfc, 0x21, 0xe3,
    0xb9, 0x02, 0x24, 0xee, 0xb1, 0xdd, 0x28, 0x17, 0x08, 0xfb, 0x10, 0xe3,
    0xeb, 0x00, 0xfb, 0x41, 0xec, 0x33, 0xf2, 0x5a, 0xfe, 0x31, 0xe5, 0x1a,
    0x1e, 0xe6, 0xfb, 0xfb, 0x19, 0xb9, 0x34, 0xe7, 0x18, 0xef, 0x04, 0x13,
    0x27, 0x0e, 0xe0, 0xeb, 0xdf, 0x21, 0x5b, 0x06, 0xdb, 0x11, 0x19, 0x45,
    0xc6, 0x2d, 0xf6, 0x19, 0x05, 0xe8, 0xfb, 0xda, 0x26, 0x1d, 0x46, 0x40,
    0xed, 0xf8, 0x0c, 0xea, 0x05, 0x36, 0xc2, 0x2a, 0xfd, 0xe1, 0xb6, 0x2b,
    0xdb, 0x0c, 0x08, 0xff, 0xca, 0xd8, 0xde, 0x0f, 0x2b, 0xe7, 0xf5, 0xef,
    0xe7, 0x04, 0xe0, 0xe7, 0x22, 0xe3, 0x29, 0xf9, 0x35, 0xf8, 0xb6, 0xf9,
    0xd1, 0x3c, 0xe5, 0x13, 0xf3, 0x0e, 0xd3, 0xc7, 0x02, 0xe3, 0x32, 0x03,
    0xff, 0xe3, 0x7f, 0xeb, 0x21, 0xdb, 0x29, 0xcc, 0xe7, 0xf6, 0x1a, 0xd7,
    0xcc, 0xee, 0xed, 0x06, 0x24, 0x07, 0x2f, 0xed, 0xc0, 0xff, 0xed, 0x14,
    0xe7, 0xfa, 0x1c, 0xd7, 0x16, 0x2b, 0x0f, 0x17, 0x19, 0x32, 0x2e, 0x1e,
    0x30, 0x0a, 0xed, 0xe0, 0xfa, 0x17, 0xd0, 0x54, 0xf4, 0x28, 0xed, 0xfa,
    0x08, 0xa6, 0xa6, 0xc2, 0xc1, 0x95, 0xba, 0x17, 0xd4, 0xce, 0x19, 0x19,
    0x16, 0xe7, 0xf7, 0xe9, 0xd7, 0x2c, 0xbd, 0x98, 0x03, 0x3f, 0x32, 0xdf,
    0xe6, 0x60, 0x05, 0x13, 0xbf, 0xd5, 0xee, 0xc1, 0x53, 0x1f, 0x2d, 0x3e,
    0x0b, 0x2d, 0x03, 0x0b, 0x03, 0x39, 0xe7, 0x93, 0xd4, 0xe9, 0x25, 0xe1,
    0x0b, 0xf3, 0xee, 0x33, 0x1a, 0x81, 0xf8, 0x45, 0x38, 0xf5, 0x15, 0x17,
    0xec, 0x45, 0xe2, 0x06, 0x21, 0x09, 0xba, 0xc6, 0x10, 0x5e, 0x3e, 0xce,
    0x40, 0xfd, 0x4a, 0xff, 0x1c, 0xca, 0x44, 0xbe, 0xe7, 0xe7, 0xe8, 0xea,
    0x97, 0x3a, 0xeb, 0xf9, 0xd8, 0x90, 0x40, 0x03, 0xd2, 0x3e, 0xc4, 0x1f,
    0x29, 0xf4, 0xd3, 0x39, 0x20, 0x1b, 0xc6, 0x5e, 0xd9, 0xb1, 0xe5, 0xe5,
    0x1f, 0x38, 0x1a, 0xdd, 0x28, 0x33, 0x17, 0x25, 0x14, 0x4a, 0x29, 0x36,
    0x21, 0x12, 0xd5, 0xce, 0xe2, 0xe6, 0x26, 0xd5, 0x98, 0x39, 0x33, 0xec,
    0xda, 0x17, 0x1a, 0x10, 0x04, 0xf7, 0xfd, 0xd4, 0xff, 0x30, 0x39, 0xe8,
    0xcd, 0xd2, 0x34, 0xf3, 0xc0, 0xc3, 0xf9, 0x17, 0xf1, 0xed, 0xe0, 0x19,
    0x12, 0x07, 0xeb, 0xc7, 0xea, 0x14, 0xe1, 0xfa, 0xcc, 0x37, 0x26, 0xaf,
    0x6b, 0xc3, 0xd1, 0xf2, 0x1d, 0x57, 0x01, 0xff, 0xf3, 0x36, 0x42, 0xd3,
    0x35, 0x2b, 0x1b, 0x33, 0x59, 0xf8, 0x1d, 0xc2, 0x60, 0x3b, 0x45, 0x76,
    0xda, 0xc7, 0xc1, 0xbc, 0xf5, 0xe1, 0xad, 0xda, 0x25, 0x69, 0xc4, 0xf3,
    0xe6, 0xf2, 0x1b, 0x0b, 0xe5, 0xc6, 0xe1, 0x3f, 0x30, 0x19, 0xc0, 0xe1,
    0xdc, 0xd2, 0x43, 0xea, 0x33, 0x30, 0x18, 0xe4, 0xeb, 0xe8, 0x09, 0xff,
    0xf6, 0x1f, 0x0a, 0x26, 0xe2, 0x26, 0xd8, 0xd5, 0xc4, 0x1d, 0x21, 0xef,
    0xcd, 0xe8, 0x32, 0xf1, 0x18, 0x28, 0xe5, 0x06, 0x2e, 0xe2, 0x1d, 0xd6,
    0xb5, 0xee, 0x1d, 0xb7, 0xd1, 0x30, 0x14, 0xd8, 0x22, 0xee, 0x0d, 0x10,
    0x4b, 0xf5, 0xfc, 0x1a, 0xe5, 0x08, 0xec, 0xf5, 0xb6, 0x60, 0x19, 0x1a,
    0xef, 0x06, 0x31, 0x07, 0x3a, 0x23, 0x1f, 0xf3, 0x0b, 0x1c, 0xef, 0xfa,
    0xde, 0x01, 0x26, 0x22, 0x3d, 0x0a, 0xf5, 0x04, 0xe9, 0xfb, 0xdd, 0xee,
    0x17, 0x29, 0x15, 0xd7, 0xd0, 0x38, 0x5a, 0xdd, 0xe7, 0x2e, 0x1a, 0x0f,
    0x17, 0xc0, 0xcb, 0xea, 0x3b, 0xd7, 0xf2, 0x36, 0x34, 0xc6, 0xc7, 0xc1,
    0x20, 0x07, 0xf3, 0x5b, 0xe6, 0x09, 0xf4, 0x45, 0xd7, 0x30, 0x2b, 0xf1,
    0x35, 0xef, 0xf3, 0xba, 0x15, 0xf1, 0x3f, 0xc3, 0x54, 0xed, 0xe1, 0xef,
    0x67, 0x2a, 0x2c, 0x0c, 0xfd, 0xde, 0xff, 0x1b, 0x3d, 0x4c, 0xdf, 0xc5,
    0x22, 0xee, 0x22, 0x19, 0x44, 0x35, 0xef, 0xd1, 0x0f, 0x15, 0x53, 0xfe,
    0x08, 0x49, 0xe0, 0xe5, 0x81, 0xf4, 0xce, 0x41, 0x2e, 0xe2, 0x3e, 0xf6,
    0xd3, 0x36, 0x0c, 0xf8, 0x23, 0x0c, 0xca, 0x1d, 0xfc, 0x05, 0x04, 0xfa,
    0xc2, 0xfb, 0x36, 0x0a, 0x1f, 0xea, 0x51, 0x2a, 0xc6, 0xac, 0x1d, 0xf5,
    0xcc, 0x17, 0x09, 0x40, 0xb1, 0x23, 0xb1, 0x41, 0xff, 0xf0, 0xac, 0xd2,
    0xd1, 0xdb, 0x54, 0xed, 0xef, 0x0b, 0xec, 0x01, 0xce, 0xed, 0xfc, 0x59,
    0xb6, 0x1c, 0xc1, 0x7f, 0xf6, 0xd9, 0xca, 0x2e, 0xb7, 0xd4, 0x09, 0xf3,
    0xb0, 0x9b, 0xfd, 0x0c, 0xc8, 0xdc, 0x0b, 0x00, 0x3c, 0xd8, 0xfe, 0xba,
    0x25, 0xd8, 0xe3, 0xc9, 0x2a, 0x29, 0xed, 0x22, 0x30, 0x0f, 0xea, 0x33,
    0xe9, 0x13, 0x1e, 0xc9, 0x2b, 0x5b, 0x31, 0x1c, 0xe0, 0xd9, 0x4b, 0xc3,
    0x41, 0x01, 0x1b, 0x0b, 0xcb, 0xf6, 0x24, 0xc2, 0xff, 0xf1, 0xeb, 0xf5,
    0xf2, 0xf8, 0xc4, 0x55, 0xea, 0xb7, 0xc1, 0xe1, 0xd6, 0xe2, 0x1d, 0x01,
    0x20, 0x14, 0x14, 0xcd, 0xdb, 0xbf, 0x18, 0xcf, 0x30, 0xf5, 0x07, 0xdd,
    0x21, 0x2d, 0x15, 0x34, 0xff, 0xd5, 0xf5, 0xd4, 0xca, 0xc9, 0xf0, 0x34,
    0x24, 0x0d, 0xf7, 0xe4, 0x71, 0x12, 0xf1, 0x17, 0xfa, 0xde, 0x25, 0x04,
    0xf3, 0xcd, 0xe5, 0x0e, 0xd4, 0x30, 0xd5, 0x38, 0xf1, 0xb8, 0xe9, 0xcf,
    0x7c, 0xda, 0xd6, 0xa8, 0x08, 0xf1, 0x27, 0x25, 0x30, 0xc7, 0xb6, 0x1b,
    0x2f, 0x38, 0x34, 0x1e, 0x1a, 0x14, 0x0d, 0x0b, 0x1f, 0xf3, 0x25, 0x08,
    0x1a, 0xf0, 0xfe, 0x31, 0x1f, 0x3d, 0x47, 0xc8, 0x25, 0xf0, 0xf6, 0xef,
    0xf6, 0xe0, 0xeb, 0xe2, 0x4f, 0x05, 0xd6, 0x19, 0xc7, 0xe3, 0xd9, 0xd7,
    0xa7, 0x11, 0xf8, 0xf5, 0xf5, 0x36, 0xec, 0x2b, 0xeb, 0x0a, 0xfc, 0x0f,
    0xda, 0xda, 0xf5, 0xc6, 0x21, 0xae, 0x2c, 0x28, 0x14, 0x4a, 0xb2, 0x37,
    0xa9, 0x1a, 0xf4, 0x01, 0xf9, 0xd4, 0xba, 0x45, 0x58, 0x51, 0x4a, 0xa2,
    0x39, 0xef, 0xfa, 0x60, 0xdb, 0xec, 0x31, 0x06, 0xfc, 0xfc, 0x42, 0x58,
    0xec, 0xd4, 0x1a, 0xee, 0x00, 0x30, 0x27, 0x18, 0x3b, 0x05, 0x08, 0x56,
    0x27, 0x57, 0xfd, 0xf1, 0x10, 0x1a, 0xea, 0xba, 0x55, 0xf0, 0xfb, 0x32,
    0xbe, 0xfe, 0x21, 0xf9, 0xd0, 0xf3, 0xe7, 0xae, 0x20, 0x58, 0x66, 0x2c,
    0x42, 0xf9, 0xc8, 0xea, 0x13, 0x2c, 0xc6, 0xf3, 0x58, 0x1d, 0x3f, 0x08,
    0x3b, 0xfc, 0xcc, 0xb6, 0xfa, 0xa8, 0xd2, 0x44, 0xaa, 0x08, 0xb0, 0xd9,
    0x61, 0x04, 0x4a, 0xe1, 0x21, 0xd3, 0xc7, 0x0c, 0x46, 0x39, 0x7a, 0x24,
    0xef, 0xf8, 0xe8, 0x27, 0x15, 0xdd, 0xa3, 0x28, 0x07, 0xb8, 0xb8, 0xd3,
    0xe6, 0x51, 0x7f, 0xe4, 0x36, 0xec, 0xea, 0x45, 0xa9, 0xd3, 0x14, 0xd5,
    0x16, 0xea, 0xb9, 0x0b, 0xd0, 0x1e, 0xcb, 0xfc, 0x53, 0xf7, 0x2f, 0x85,
    0xf5, 0x9d, 0xd6, 0x46, 0xbc, 0x04, 0x10, 0x14, 0x0f, 0x1f, 0x4b, 0xf9,
    0x21, 0xa8, 0xd5, 0x22, 0x01, 0x91, 0xfe, 0x27, 0xf9, 0xd3, 0xf7, 0x1c,
    0x16, 0x14, 0x05, 0xd4, 0xe1, 0x16, 0x3f, 0x3d, 0xd3, 0x51, 0x2b, 0x54,
    0xb4, 0xd2, 0x10, 0x30, 0x16, 0x44, 0x6f, 0xfa, 0x62, 0x19, 0xc7, 0x32,
    0xc4, 0x19, 0x15, 0x32, 0x98, 0xff, 0x45, 0xc2, 0xd0, 0x3b, 0x60, 0xda,
    0xf1, 0xb8, 0x6b, 0xd3, 0xd3, 0x0d, 0xed, 0x13, 0x18, 0xf3, 0x31, 0x44,
    0x02, 0x32, 0xd4, 0xfa, 0x2f, 0xd7, 0x23, 0xb9, 0xe0, 0xe3, 0x6f, 0x1e,
    0x1e, 0x5e, 0x0e, 0x03, 0x97, 0x2d, 0xec, 0xc9, 0x32, 0xb7, 0x5e, 0xe3,
    0x43, 0x14, 0x00, 0x78, 0xf3, 0xb4, 0xeb, 0x11, 0x28, 0x5a, 0x06, 0xad,
    0x11, 0x07, 0x24, 0x16, 0x06, 0x2f, 0x57, 0xf8, 0xe9, 0x1b, 0xba, 0x07,
    0xd0, 0x7f, 0xfb, 0x02, 0x4f, 0x42, 0x5c, 0xc7, 0x1e, 0xd1, 0x48, 0xd8,
    0x3d, 0xad, 0xbe, 0xe8, 0x07, 0x28, 0x04, 0x31, 0x05, 0xef, 0x18, 0xda,
    0xda, 0x4d, 0x09, 0xd5, 0x50, 0x54, 0x28, 0x2c, 0xba, 0xe9, 0x25, 0xd3,
    0xa4, 0x1c, 0x49, 0xcf, 0x13, 0x2c, 0x3c, 0x1b, 0x3c, 0xc5, 0xc6, 0xf4,
    0xd3, 0xe0, 0xdc, 0x23, 0x22, 0x97, 0x21, 0x0b, 0x19, 0x44, 0xe7, 0x20,
    0x0d, 0x06, 0x1f, 0xb6, 0x45, 0xcd, 0xdc, 0x2b, 0x13, 0xe6, 0x06, 0xd7,
    0x0e, 0xd5, 0x15, 0x17, 0xe3, 0x36, 0xd0, 0xd3, 0xf0, 0x54, 0xed, 0x0e,
    0x13, 0xdd, 0xdd, 0xeb, 0x01, 0xff, 0x40, 0xff, 0xd8, 0x04, 0xdf, 0xec,
    0xd4, 0x36, 0xcb, 0xfb, 0xee, 0x28, 0xe2, 0xc4, 0x0f, 0xd1, 0xfa, 0x5f,
    0x0d, 0x22, 0xaa, 0xec, 0x21, 0x3c, 0xe6, 0xd3, 0x0c, 0x3d, 0x12, 0x26,
    0x06, 0xf4, 0x0c, 0xdc, 0x28, 0xd2, 0xee, 0xfd, 0xf8, 0x1f, 0x2c, 0xce,
    0x2b, 0x22, 0x0b, 0xfa, 0xda, 0x06, 0xf3, 0xdb, 0xeb, 0x1e, 0x14, 0xfb,
    0x4e, 0xd7, 0x08, 0xec, 0xe9, 0x43, 0x21, 0xdf, 0x01, 0xec, 0x26, 0x22,
    0xe3, 0x7f, 0x4d, 0x14, 0x30, 0x2e, 0xdf, 0xdf, 0x18, 0x0a, 0xf0, 0x0e,
    0xf6, 0xe2, 0x17, 0xfd, 0x0d, 0x31, 0xe6, 0xf4, 0x4b, 0xde, 0xd4, 0xe5,
    0xe0, 0x32, 0xf6, 0x9d, 0x2c, 0xf6, 0x32, 0xf4, 0xd3, 0x03, 0xff, 0xdf,
    0x17, 0x09, 0xe7, 0x1f, 0x1c, 0xe9, 0x33, 0x2b, 0x17, 0x28, 0x32, 0xc4,
    0x38, 0x36, 0xf6, 0xc8, 0xe9, 0x32, 0xdf, 0xf0, 0x14, 0xdd, 0xb9, 0x08,
    0x14, 0x4d, 0xdb, 0x43, 0xd4, 0x18, 0x03, 0x30, 0x08, 0x03, 0x40, 0xf9,
    0xe8, 0xf3, 0xfb, 0x08, 0xb0, 0x12, 0xf1, 0x31, 0x16, 0x17, 0xfd, 0x2b,
    0x18, 0xbb, 0xec, 0xf5, 0xca, 0x11, 0xd3, 0xfa, 0x1d, 0x0f, 0xd3, 0xee,
    0x35, 0x01, 0x2d, 0x22, 0xd1, 0x2a, 0xed, 0x23, 0x28, 0x21, 0xd6, 0x3d,
    0xe6, 0xd8, 0x17, 0x2a, 0x27, 0xe7, 0xc2, 0x1e, 0x00, 0x33, 0x6c, 0xd1,
    0xdd, 0x2c, 0x1a, 0xfb, 0x14, 0xdd, 0x32, 0xf7, 0x04, 0xdd, 0x1f, 0xbb,
    0x3d, 0x02, 0xe9, 0x22, 0xf9, 0x07, 0xd7, 0x3a, 0xe4, 0xf2, 0x20, 0xde,
    0xc1, 0x36, 0xc4, 0xed, 0xf0, 0xe7, 0xff, 0xdc, 0xcd, 0x18, 0xc7, 0xf7,
    0xe9, 0x36, 0x23, 0x01, 0x14, 0x1e, 0xe9, 0x34, 0xd9, 0xe8, 0xe0, 0xd4,
    0xf3, 0x32, 0xf5, 0x34, 0x24, 0xe4, 0x05, 0xce, 0x3f, 0xf8, 0xda, 0x19,
    0x01, 0x2d, 0x02, 0x02, 0xea, 0xd7, 0x29, 0x00, 0x38, 0xec, 0x0e, 0x03,
    0x4b, 0xe1, 0x27, 0xea, 0x0d, 0xe1, 0xba, 0xf6, 0x06, 0x08, 0xd9, 0xf7,
    0xc7, 0xea, 0x1b, 0xfe, 0xfc, 0xb8, 0x4e, 0xdd, 0xfc, 0xfd, 0xf3, 0x24,
    0x35, 0x2b, 0xc0, 0xc9, 0xde, 0xfe, 0x1c, 0x25, 0xee, 0x0a, 0x57, 0x22,
    0xfa, 0xe3, 0x0f, 0xb9, 0xd4, 0xd7, 0x37, 0x7f, 0x17, 0x50, 0x16, 0x1d,
    0x0d, 0xcd, 0xd0, 0x2e, 0xce, 0xb4, 0x2c, 0xde, 0x16, 0xfb, 0x06, 0xe7,
    0x36, 0x17, 0x25, 0xd2, 0x05, 0x02, 0xd5, 0xcc, 0xf7, 0xf6, 0x11, 0xeb,
    0xd0, 0x36, 0xea, 0x2d, 0xcb, 0xe7, 0xaa, 0xf6, 0xfb, 0xc0, 0xd7, 0x2a,
    0x00, 0x45, 0x31, 0x34, 0xdf, 0xbe, 0xc0, 0x45, 0xe6, 0xb3, 0xd6, 0xf0,
    0x0b, 0xf4, 0xd9, 0x2b, 0x18, 0x20, 0xd1, 0xe5, 0x85, 0x15, 0xd1, 0xf5,
    0x2b, 0x2a, 0x45, 0x1b, 0x0e, 0xab, 0x1a, 0x24, 0x08, 0x32, 0x00, 0x04,
    0x0a, 0xbe, 0x5a, 0xfc, 0x13, 0x17, 0xf4, 0x45, 0xe2, 0xcb, 0x3e, 0x19,
    0x36, 0xda, 0x06, 0x31, 0x1c, 0x0f, 0x1f, 0xcb, 0xc2, 0xf5, 0xe6, 0x2b,
    0xef, 0xeb, 0xba, 0x08, 0x08, 0x27, 0xb3, 0xdf, 0xda, 0x23, 0xfa, 0x11,
    0xb5, 0xfa, 0x32, 0x55, 0x16, 0x11, 0x1e, 0x1f, 0x13, 0x10, 0x14, 0xf2,
    0x3e, 0x0b, 0xc6, 0xc3, 0x3b, 0xd6, 0x37, 0x2a, 0x1d, 0x32, 0xb6, 0x27,
    0x12, 0x9d, 0xbe, 0xeb, 0xf5, 0x1f, 0xc5, 0x05, 0xf5, 0x03, 0xe3, 0xf3,
    0x36, 0xf9, 0xd4, 0xf8, 0xb5, 0xe3, 0x5b, 0x6b, 0x06, 0x0e, 0x31, 0xf8,
    0xc0, 0xec, 0x18, 0xfe, 0x2a, 0xe9, 0xa9, 0xba, 0x56, 0x43, 0x06, 0x1f,
    0x3e, 0xc9, 0x0f, 0xea, 0xe4, 0x09, 0x10, 0x1f, 0xe1, 0x57, 0xd9, 0xcb,
    0x04, 0xfd, 0xd7, 0xe3, 0x14, 0x2e, 0xd8, 0xd3, 0xc0, 0x05, 0x7f, 0x26,
    0x02, 0x15, 0xf1, 0x25, 0x03, 0x23, 0xcd, 0xcf, 0x21, 0x25, 0xb2, 0x0a,
    0xea, 0x01, 0x16, 0x0f, 0xf2, 0x15, 0x2e, 0xe6, 0x13, 0xee, 0xd8, 0xd4,
    0x10, 0xf8, 0x06, 0xd1, 0xcd, 0x16, 0xf2, 0x29, 0x0d, 0x25, 0x17, 0x1e,
    0xc2, 0x0d, 0x16, 0xe6, 0xf0, 0x0c, 0xe7, 0x0f, 0xed, 0x14, 0xe3, 0xea,
    0x08, 0xf1, 0xee, 0xcb, 0xf7, 0xe3, 0x18, 0x26, 0xfa, 0x1a, 0xfc, 0xfb,
    0x24, 0xf6, 0xfd, 0x42, 0xf8, 0x0d, 0x34, 0xe9, 0xda, 0xe7, 0xdc, 0x02,
    0x1e, 0x28, 0xe8, 0x20, 0x2f, 0xf9, 0x09, 0x12, 0xf7, 0x16, 0x0a, 0x16,
    0x18, 0xdf, 0xf3, 0x0f, 0x2d, 0x58, 0xde, 0x08, 0xdd, 0x19, 0xfd, 0xfd,
    0xdd, 0x10, 0xd2, 0x14, 0xf8, 0x0f, 0x11, 0xf1, 0x10, 0x02, 0x28, 0x1f,
    0xcf, 0x1b, 0xf5, 0xde, 0xe6, 0x0c, 0xda, 0x14, 0xed, 0x07, 0xd5, 0xf0,
    0x1f, 0xf8, 0xdf, 0x1b, 0x01, 0xf8, 0x0c, 0xe1, 0x20, 0xd9, 0xea, 0xeb,
    0x16, 0x38, 0xf5, 0xd3, 0x42, 0x41, 0xfa, 0xfd, 0x00, 0x22, 0x03, 0xd7,
    0x05, 0xdc, 0x01, 0x43, 0x15, 0x23, 0x42, 0x0d, 0xe7, 0xf0, 0x21, 0xef,
    0xdb, 0xee, 0x04, 0xe0, 0xe5, 0x09, 0xea, 0xf8, 0xfe, 0x0b, 0x0d, 0x3c,
    0xfd, 0x0c, 0xcc, 0x0c, 0xc7, 0xd1, 0xf0, 0xd5, 0xee, 0xe4, 0x25, 0x1c,
    0xf9, 0x1d, 0xf4, 0xeb, 0x17, 0xdd, 0xf5, 0xfa, 0xad, 0xdb, 0x47, 0x1f,
    0xe0, 0x3a, 0x28, 0x08, 0xe5, 0xf2, 0xd6, 0x9f, 0xf5, 0x24, 0xc2, 0x2f,
    0xa6, 0x2f, 0xb3, 0xcf, 0xd7, 0x4b, 0xcf, 0x81, 0x24, 0xf7, 0xfc, 0x2e,
    0x01, 0x3a, 0xbb, 0xb6, 0x4c, 0xb7, 0x28, 0x24, 0xf7, 0x7b, 0xeb, 0xf7,
    0xea, 0xcb, 0x05, 0xca, 0xea, 0x28, 0xdd, 0x27, 0xd2, 0x92, 0x51, 0x1e,
    0xb0, 0xe2, 0xca, 0x04, 0xf6, 0x75, 0x22, 0xe5, 0xfd, 0xf2, 0x93, 0xcd,
    0xe1, 0x08, 0xf3, 0xf3, 0xbe, 0x15, 0x2d, 0x2f, 0xe6, 0xed, 0x56, 0xa5,
    0x3a, 0x12, 0x02, 0x42, 0x55, 0xc0, 0xd1, 0x0d, 0xae, 0x2b, 0xd7, 0x2b,
    0x12, 0xe3, 0xe5, 0xdf, 0xfb, 0xe7, 0xf3, 0x47, 0xd8, 0xa3, 0xfe, 0x1b,
    0x2e, 0xba, 0xf2, 0xbc, 0xea, 0x25, 0xf8, 0x14, 0x38, 0xbf, 0x4b, 0x14,
    0x00, 0xfc, 0xb4, 0x53, 0xd8, 0x49, 0x0a, 0x48, 0x2f, 0xef, 0x14, 0x32,
    0xf2, 0xec, 0xf3, 0xd1, 0xfe, 0xe1, 0x32, 0x3c, 0xb9, 0x43, 0x70, 0x01,
    0x06, 0x46, 0x07, 0xf7, 0x8e, 0x2e, 0x31, 0x04, 0xff, 0xd5, 0xad, 0xfa,
    0x5d, 0x35, 0x27, 0xf2, 0x4a, 0xfd, 0xe9, 0xb0, 0xf1, 0xcc, 0x06, 0xf8,
    0x2d, 0xf0, 0xe2, 0x04, 0x3d, 0x0e, 0xa7, 0x1a, 0x46, 0x01, 0x0d, 0x0c,
    0x34, 0xda, 0x51, 0x0b, 0xe3, 0xea, 0xed, 0xa8, 0x0f, 0xc9, 0x25, 0xcb,
    0x15, 0xa9, 0xb6, 0xef, 0x13, 0xfb, 0xb8, 0x04, 0xc4, 0x02, 0x23, 0x4e,
    0xd3, 0x18, 0xc5, 0xf8, 0x01, 0x30, 0xc3, 0x1d, 0x15, 0xec, 0x35, 0xe8,
    0x0d, 0xc0, 0x2f, 0xfc, 0x3d, 0xaf, 0x18, 0xe9, 0x57, 0x01, 0xe6, 0x20,
    0xd4, 0xa4, 0xcd, 0xba, 0xc8, 0x14, 0xa9, 0x38, 0x35, 0x4a, 0x26, 0xf7,
    0x15, 0xbe, 0xd4, 0xf0, 0x3b, 0xc4, 0x87, 0xab, 0x20, 0x13, 0xf4, 0xf4,
    0xf7, 0x53, 0xcc, 0xe2, 0x45, 0xd1, 0x05, 0xba, 0xb4, 0x08, 0x44, 0xe2,
    0x4e, 0xa6, 0x38, 0x2d, 0x51, 0xdd, 0x09, 0x1d, 0x09, 0xcd, 0x13, 0x1e,
    0xe9, 0x50, 0xde, 0x2c, 0x26, 0x76, 0x1a, 0xe7, 0xc3, 0x12, 0x9b, 0xf4,
    0x1c, 0x02, 0xcc, 0xa5, 0x48, 0xe5, 0x02, 0x9b, 0xf3, 0x4c, 0x42, 0xae,
    0x21, 0x2a, 0x52, 0xf3, 0xb0, 0x42, 0x5b, 0x1a, 0xe8, 0xf2, 0xb2, 0xe2,
    0x0a, 0x33, 0x1f, 0xff, 0x23, 0xa7, 0x02, 0x03, 0xdc, 0x67, 0xc6, 0xd2,
    0x7f, 0xcd, 0xf3, 0x27, 0x13, 0x39, 0xad, 0x76, 0x4a, 0x50, 0x3a, 0xaa,
    0xa4, 0xe5, 0x0a, 0x01, 0x08, 0x38, 0x06, 0xa2, 0x02, 0x10, 0x0e, 0xe8,
    0x52, 0x13, 0x1f, 0xdb, 0xe3, 0xf0, 0xdf, 0x79, 0x41, 0xd2, 0xf3, 0xc1,
    0x8b, 0xf1, 0xed, 0xc8, 0x99, 0x05, 0xdd, 0x0c, 0x5d, 0xaf, 0xef, 0xc3,
    0xdd, 0xe2, 0x39, 0xeb, 0x5a, 0xbc, 0xe0, 0x26, 0x1f, 0x20, 0xca, 0x5d,
    0xf9, 0xd8, 0x01, 0xf0, 0x04, 0x2b, 0xe2, 0x07, 0x03, 0x2b, 0x33, 0xd7,
    0x29, 0xae, 0x0f, 0xf1, 0xfd, 0x25, 0xfb, 0xc8, 0x05, 0xe1, 0x25, 0x3e,
    0x01, 0x77, 0xef, 0xc4, 0xde, 0xec, 0xf1, 0x07, 0x07, 0xff, 0xb5, 0x2a,
    0xfd, 0x03, 0x50, 0x32, 0x06, 0x17, 0xe5, 0x1d, 0xe0, 0x0d, 0x4c, 0xfd,
    0xe1, 0x3b, 0xdc, 0xe3, 0x06, 0xf8, 0x3f, 0xef, 0x4b, 0xcf, 0xd7, 0x3e,
    0x17, 0xec, 0x29, 0xc0, 0xd7, 0xe3, 0x32, 0x21, 0x0d, 0xf9, 0x27, 0xe5,
    0x36, 0x29, 0x0f, 0x49, 0x13, 0x10, 0xf8, 0xeb, 0x5d, 0x0e, 0x24, 0xfe,
    0xdd, 0x2b, 0xf8, 0xe0, 0x44, 0xe7, 0x08, 0x01, 0x44, 0x36, 0x00, 0x27,
    0xba, 0xee, 0x10, 0xea, 0x49, 0xcb, 0x31, 0x26, 0x13, 0x0f, 0x48, 0xf6,
    0xfa, 0xe2, 0x5b, 0xdd, 0xc9, 0xec, 0x09, 0x0b, 0x81, 0xd0, 0xeb, 0x38,
    0xa9, 0x22, 0xe4, 0xed, 0x1d, 0xd3, 0x27, 0xd2, 0xaa, 0x50, 0x29, 0x2a,
    0xc3, 0xcc, 0x0b, 0xa2, 0xd8, 0xfd, 0xfc, 0x05, 0xe5, 0xb3, 0x16, 0xe7,
    0x3f, 0x10, 0xe6, 0xed, 0x59, 0x22, 0x23, 0xe8, 0x25, 0xff, 0xab, 0xee,
    0xec, 0x12, 0xd5, 0xb7, 0x36, 0xf5, 0xef, 0x29, 0x09, 0x4b, 0xe9, 0xb8,
    0xe7, 0x32, 0x10, 0xd5, 0xf4, 0x18, 0xc7, 0xfd, 0x11, 0xe1, 0x14, 0xcb,
    0x00, 0x05, 0xcd, 0x00, 0xf3, 0x34, 0x59, 0x4f, 0xc0, 0xb9, 0x48, 0x07,
    0x17, 0x2e, 0xd6, 0xdc, 0x1c, 0xe2, 0xed, 0xc1, 0x40, 0xf6, 0x06, 0x25,
    0xb3, 0x12, 0xc7, 0x23, 0xe1, 0xe8, 0x1f, 0xe8, 0xa7, 0x0e, 0x35, 0x18,
    0xf0, 0x07, 0x61, 0xcd, 0xbc, 0xde, 0xe1, 0x13, 0x9f, 0x2b, 0x19, 0x25,
    0x2c, 0xc2, 0xf9, 0x03, 0xd9, 0xd6, 0xd4, 0xf7, 0xce, 0x8a, 0xe0, 0xcb,
    0xc8, 0x0b, 0x32, 0xfb, 0xe7, 0xc1, 0xf0, 0xdc, 0xef, 0xe2, 0xdf, 0x05,
    0xfb, 0xc9, 0x59, 0xdd, 0xe8, 0x14, 0xeb, 0x57, 0xe3, 0x33, 0xff, 0xcd,
    0xee, 0x01, 0x6f, 0x33, 0x0a, 0x06, 0xfc, 0xb7, 0xf7, 0x08, 0xd8, 0xfb,
    0xd6, 0xf0, 0x02, 0x34, 0x1f, 0x16, 0x34, 0x15, 0x1f, 0xff, 0xe6, 0xda,
    0x22, 0xf1, 0x2a, 0x01, 0xe5, 0xef, 0x40, 0x0b, 0xf3, 0x9d, 0x1f, 0x04,
    0x0c, 0x2a, 0x14, 0x2b, 0x34, 0x7f, 0xfe, 0xf7, 0xf5, 0x00, 0xdc, 0x12,
    0x06, 0x1d, 0x18, 0xeb, 0x0a, 0xfe, 0x3e, 0xec, 0x12, 0x00, 0x1e, 0xed,
    0xef, 0x07, 0x03, 0xda, 0x08, 0x42, 0x11, 0xe3, 0x02, 0x2d, 0x38, 0x00,
    0x01, 0x1b, 0x04, 0x0a, 0xdf, 0xd8, 0xd5, 0xfd, 0x27, 0x22, 0xd6, 0x17,
    0xf2, 0xd0, 0xda, 0x13, 0x11, 0xb6, 0x1c, 0xdd, 0xff, 0x0f, 0x16, 0x4f,
    0x4c, 0x34, 0x2c, 0x3d, 0x2b, 0x02, 0xce, 0x12, 0x31, 0xfb, 0xb1, 0x13,
    0xeb, 0x08, 0xf6, 0xdb, 0x59, 0x12, 0x0f, 0x02, 0x0f, 0xd9, 0xdc, 0x53,
    0x23, 0x36, 0xfb, 0x03, 0xc3, 0x2d, 0x23, 0xdc, 0xff, 0x26, 0xeb, 0x11,
    0x41, 0x27, 0x1f, 0x1f, 0xee, 0xff, 0xfb, 0x03, 0x14, 0xf1, 0x22, 0xfe,
    0xe0, 0x3b, 0xdb, 0x0e, 0x00, 0x0f, 0xd4, 0x0d, 0xf7, 0xe2, 0x19, 0xd6,
    0xff, 0xf6, 0x39, 0x2a, 0x01, 0x2b, 0x19, 0xbf, 0x0f, 0x0a, 0xc9, 0x1b,
    0x06, 0x1a, 0x12, 0x1d, 0x0f, 0x23, 0x1a, 0x31, 0xef, 0x31, 0xff, 0x30,
    0x10, 0xfa, 0xed, 0xef, 0xff, 0x38, 0x31, 0x18, 0xf9, 0xb9, 0x23, 0x08,
    0xc9, 0xcc, 0x1c, 0xf8, 0xd7, 0x37, 0x12, 0x27, 0x28, 0x03, 0xf9, 0x37,
    0x12, 0x41, 0xd1, 0x10, 0xac, 0xc9, 0x7f, 0x35, 0xe7, 0x01, 0x11, 0x0d,
    0xa5, 0x01, 0xfc, 0x3a, 0xec, 0xb3, 0x50, 0x0e, 0x00, 0x2a, 0x22, 0xdc,
    0x5d, 0xa4, 0x1f, 0x27, 0xf8, 0x17, 0xc9, 0x42, 0xd5, 0xe0, 0x0b, 0x26,
    0xf4, 0xf6, 0x32, 0xf3, 0xb7, 0x22, 0xb9, 0x05, 0xde, 0xec, 0x1a, 0x0f,
    0x03, 0x01, 0x23, 0xfb, 0xfb, 0xe9, 0x22, 0x37, 0x07, 0x25, 0xd2, 0x2b,
    0xd8, 0x24, 0x1b, 0xda, 0x4f, 0xc8, 0xf5, 0x32, 0x01, 0x15, 0xe2, 0xba,
    0x42, 0xf2, 0x01, 0x32, 0x3f, 0x29, 0xf6, 0xf7, 0xfd, 0x0c, 0xf9, 0x0f,
    0x4b, 0x08, 0xf5, 0xe3, 0x26, 0xd2, 0x3e, 0x3a, 0x5c, 0xf8, 0x08, 0x0f,
    0xf2, 0x76, 0x4a, 0x21, 0xef, 0x14, 0xe6, 0xd0, 0xe7, 0x50, 0xfb, 0x10,
    0xcb, 0xce, 0xed, 0xe8, 0x14, 0x03, 0xf6, 0xd3, 0x04, 0x1a, 0x25, 0x44,
    0x31, 0xd5, 0xe9, 0x0a, 0x08, 0x38, 0x33, 0xd7, 0x29, 0x01, 0x26, 0xd7,
    0x1d, 0x05, 0x20, 0x25, 0xc1, 0x2c, 0xdc, 0x06, 0x1a, 0xe7, 0x28, 0xe7,
    0x29, 0xb9, 0xf4, 0x09, 0xf4, 0x65, 0xdf, 0x42, 0x0a, 0x3d, 0x1e, 0xf0,
    0x08, 0xf0, 0x0c, 0x1d, 0x01, 0x23, 0xf3, 0xd2, 0xd2, 0x18, 0x34, 0xfe,
    0x01, 0xf0, 0x36, 0x57, 0x0c, 0x14, 0x2c, 0x29, 0xfa, 0xf1, 0xeb, 0xfd,
    0x27, 0xfd, 0xe7, 0x23, 0xf4, 0xc5, 0x46, 0xc9, 0x3a, 0xfb, 0xfa, 0xf0,
    0x3f, 0xef, 0x1e, 0x19, 0x27, 0x09, 0xbf, 0xdf, 0xff, 0xb1, 0x43, 0x1d,
    0xcc, 0x28, 0xd5, 0xfb, 0x08, 0x24, 0x1c, 0x06, 0xd0, 0x0b, 0xf6, 0xce,
    0xdc, 0x0b, 0x1e, 0x17, 0xd1, 0x1e, 0xfc, 0x0e, 0x0c, 0xc5, 0xde, 0xf5,
    0xfe, 0x3d, 0x05, 0xe9, 0x1a, 0xd7, 0x05, 0xf8, 0xfe, 0xde, 0xcb, 0x12,
    0xe1, 0x15, 0xf7, 0x0e, 0x25, 0x0d, 0xf8, 0xfe, 0x16, 0x15, 0x09, 0xf4,
    0x31, 0xff, 0xe8, 0xff, 0x2f, 0xf3, 0xde, 0x3b, 0xfd, 0xce, 0x32, 0xea,
    0xef, 0x19, 0xe8, 0xf0, 0x07, 0x2a, 0xd3, 0x21, 0x36, 0xda, 0x3a, 0xc4,
    0xe0, 0xdf, 0xc6, 0xec, 0x46, 0xf9, 0x0b, 0xff, 0xfd, 0xf8, 0x0f, 0xdd,
    0x10, 0xf1, 0x1f, 0x28, 0xc4, 0x09, 0x2f, 0xe0, 0x22, 0x19, 0xe5, 0x06,
    0x39, 0x42, 0x0f, 0x2b, 0x07, 0xe7, 0xe9, 0xfa, 0x00, 0x0f, 0x33, 0xc6,
    0x08, 0xe8, 0xcd, 0x3a, 0x0a, 0x4d, 0xe4, 0x0e, 0x2a, 0x28, 0xea, 0x14,
    0x4d, 0xf5, 0x10, 0x30, 0x17, 0xf6, 0x2d, 0xe7, 0x01, 0xf6, 0xe9, 0x11,
    0x45, 0x1d, 0x23, 0x3d, 0x17, 0xf5, 0x08, 0xe0, 0xfb, 0x1c, 0xe1, 0xe6,
    0x15, 0x28, 0xe3, 0x52, 0xa4, 0x1d, 0x2e, 0xec, 0xf9, 0x7f, 0xc5, 0x0e,
    0xdf, 0x1a, 0x05, 0x87, 0x08, 0xd9, 0xb1, 0xb2, 0x0d, 0x0e, 0xdb, 0xf9,
    0xcf, 0xc3, 0x1d, 0x28, 0xd5, 0x0f, 0xba, 0xbe, 0xf6, 0x1b, 0xd6, 0xea,
    0x33, 0xce, 0xe4, 0x11, 0x38, 0xd0, 0x3c, 0xde, 0x38, 0x41, 0x08, 0xfc,
    0x16, 0xf0, 0x09, 0x04, 0x2b, 0xff, 0xf5, 0xbf, 0xc4, 0xc9, 0x07, 0xfc,
    0xd4, 0x5e, 0xf7, 0xef, 0xf1, 0xdc, 0x14, 0xc7, 0x05, 0xd0, 0x2d, 0xc5,
    0xf8, 0x25, 0x2b, 0x15, 0x1a, 0x17, 0xf8, 0x11, 0x22, 0xfc, 0x20, 0x11,
    0x05, 0x01, 0xf2, 0xd0, 0xec, 0xf6, 0x05, 0x14, 0x02, 0x4b, 0xec, 0xf2,
    0x07, 0x14, 0xe7, 0x27, 0x1a, 0xec, 0x39, 0x00, 0x03, 0x12, 0xf6, 0x17,
    0xea, 0x20, 0xf8, 0x1c, 0x38, 0x0c, 0x07, 0x14, 0xe0, 0x1d, 0xfb, 0x23,
    0xfa, 0xe8, 0x10, 0xe5, 0xe9, 0xe9, 0x3d, 0x2f, 0xee, 0xea, 0x08, 0x33,
    0x3d, 0xef, 0x00, 0x2e, 0x0f, 0xf5, 0xd2, 0xe3, 0x0a, 0x20, 0xec, 0xf2,
    0x15, 0x22, 0xfa, 0x2c, 0xd0, 0x33, 0x04, 0xea, 0xe3, 0x36, 0x05, 0x00,
    0x0c, 0x02, 0x1d, 0xf2, 0xda, 0xe8, 0x1d, 0xc0, 0x24, 0x5a, 0xdb, 0x08,
    0xec, 0xfc, 0x0c, 0xd5, 0xe9, 0xda, 0x1e, 0xe5, 0x01, 0xfc, 0x15, 0x21,
    0x2e, 0xfb, 0x12, 0x1e, 0xc4, 0xee, 0x24, 0x28, 0x17, 0xcc, 0x38, 0x45,
    0xe2, 0xf5, 0xf7, 0x27, 0x03, 0x2e, 0xf1, 0x1b, 0xc2, 0xfa, 0xbb, 0x32,
    0x7f, 0x27, 0x3b, 0xf5, 0x02, 0x11, 0xe1, 0x1c, 0x36, 0xbf, 0xe7, 0xef,
    0xf9, 0x31, 0xfe, 0xf8, 0x17, 0xe3, 0xe7, 0x4b, 0xed, 0xf0, 0x36, 0x08,
    0x2a, 0x15, 0xc0, 0x31, 0x18, 0x17, 0xf8, 0x00, 0x2f, 0x1a, 0x04, 0xf3,
    0x24, 0xd8, 0x29, 0x61, 0x46, 0x10, 0x17, 0xf6, 0x19, 0xd9, 0xf2, 0x37,
    0xda, 0x0c, 0xfe, 0x28, 0x61, 0x33, 0x0d, 0x15, 0x16, 0xee, 0x0f, 0x21,
    0xdb, 0x4b, 0xdb, 0x26, 0x22, 0x19, 0xb4, 0xb3, 0xf1, 0x2b, 0xd5, 0x69,
    0xe1, 0x30, 0xce, 0xe9, 0xd5, 0x19, 0x22, 0xa8, 0xff, 0x98, 0xe4, 0xe2,
    0x45, 0xcc, 0x26, 0x19, 0xed, 0xdc, 0xc8, 0x22, 0x17, 0xf7, 0x25, 0xc3,
    0xcf, 0x21, 0xd4, 0x09, 0xa1, 0xe9, 0xb5, 0xdc, 0xd9, 0x1f, 0x93, 0x45,
    0x09, 0xe7, 0xc8, 0xbd, 0x1f, 0xaf, 0xb6, 0xb1, 0x05, 0xb8, 0xdc, 0xf9,
    0x20, 0xf6, 0xd3, 0x12, 0x08, 0xfe, 0x81, 0xd6, 0xcc, 0x9f, 0xd2, 0x89,
    0xac, 0x9c, 0xbb, 0xa9, 0x29, 0x58, 0x14, 0xce, 0x21, 0xc4, 0xfb, 0xc7,
    0xc2, 0xd2, 0x05, 0x10, 0xd1, 0x07, 0x3e, 0x95, 0x90, 0x06, 0xb2, 0xa1,
    0x17, 0x07, 0x98, 0xbe, 0xb2, 0xca, 0x3b, 0xce, 0xd1, 0xd8, 0xb5, 0x38,
    0x35, 0x11, 0x17, 0xd4, 0xd4, 0xbd, 0x23, 0x4c, 0x4a, 0xa5, 0xab, 0xd0,
    0x2c, 0xfd, 0xf5, 0xc8, 0xa0, 0x1e, 0x0b, 0xe3, 0xe9, 0x2c, 0xd8, 0xf8,
    0x34, 0x3d, 0x00, 0xf8, 0xfd, 0xc6, 0xb3, 0xfb, 0x3b, 0xf7, 0xf1, 0x13,
    0x85, 0xe1, 0xe8, 0x86, 0xb3, 0x00, 0x1e, 0xb2, 0xe3, 0xf4, 0x29, 0xd5,
    0xef, 0xcd, 0xef, 0xcd, 0xff, 0xbb, 0x20, 0x8d, 0xc9, 0x47, 0x57, 0xe7,
    0xcd, 0x17, 0x03, 0x43, 0xe4, 0x0e, 0x13, 0x20, 0xb0, 0x25, 0xf8, 0xed,
    0x61, 0xca, 0x26, 0x13, 0xb4, 0xf6, 0xec, 0xe9, 0xfc, 0xc1, 0xa3, 0xf2,
    0x1a, 0x24, 0x18, 0x19, 0x9f, 0x82, 0xc6, 0xb6, 0x28, 0x0b, 0xac, 0xc0,
    0x08, 0xc7, 0x41, 0x0f, 0xbc, 0x3d, 0xc7, 0xaf, 0x28, 0x6e, 0x1f, 0xc1,
    0x0b, 0x16, 0xea, 0x19, 0x12, 0xdf, 0x13, 0xae, 0xdf, 0x22, 0xb6, 0x34,
    0x10, 0xd6, 0x31, 0xad, 0x2b, 0x0d, 0xc8, 0xb7, 0x9c, 0xfe, 0xe5, 0xe1,
    0x28, 0x1a, 0x3d, 0x1c, 0x96, 0xca, 0x04, 0x15, 0xeb, 0x2e, 0x91, 0x1d,
    0x0c, 0xd7, 0x15, 0xfc, 0xf8, 0xc9, 0xe4, 0xd9, 0x16, 0xcb, 0xc9, 0xc5,
    0x11, 0xe8, 0x33, 0x2d, 0xbd, 0xef, 0xfb, 0x13, 0x60, 0xe8, 0xca, 0xb3,
    0xe0, 0xe8, 0x07, 0xce, 0xf4, 0xd6, 0x0c, 0xd0, 0xfa, 0x04, 0xa1, 0xc8,
    0xaf, 0xc9, 0xe5, 0xb3, 0x0a, 0xef, 0xc9, 0x03, 0xdd, 0x50, 0xe9, 0xd2,
    0xf1, 0xec, 0xfa, 0xe7, 0xdc, 0x1f, 0xe2, 0x1e, 0x2f, 0x8e, 0xe5, 0x16,
    0xd5, 0xdb, 0xb8, 0x01, 0x42, 0x2b, 0xec, 0xed, 0xfb, 0x22, 0x81, 0x44,
    0xb0, 0xf7, 0xeb, 0xb3, 0x9d, 0xce, 0x2c, 0xf4, 0x42, 0xd0, 0x16, 0xa9,
    0x2e, 0xcc, 0xf0, 0xcf, 0xd2, 0xf0, 0x48, 0xf0, 0x15, 0x42, 0xf6, 0xf2,
    0xd3, 0x1b, 0xef, 0xb5, 0xfa, 0xd1, 0xd1, 0x14, 0x1c, 0xf1, 0x37, 0x07,
    0xdd, 0xb7, 0xea, 0x16, 0xd3, 0xb3, 0xfb, 0xe8, 0xf4, 0x34, 0x5f, 0x35,
    0xf2, 0x34, 0xa0, 0xf7, 0x31, 0xc1, 0xad, 0xa4, 0xbc, 0xa3, 0x2a, 0x23,
    0x5b, 0xc3, 0xd6, 0xec, 0xdf, 0xe2, 0x0d, 0x02, 0x20, 0xe0, 0x18, 0xe9,
    0xff, 0xff, 0xe6, 0x3d, 0x19, 0xf7, 0x3d, 0xc0, 0xee, 0xea, 0x97, 0xff,
    0xd1, 0x54, 0x23, 0xf6, 0xfd, 0xdd, 0x1f, 0x17, 0x25, 0xfe, 0x07, 0xe5,
    0x38, 0xcc, 0xdf, 0x37, 0xea, 0x00, 0x03, 0x5a, 0xd7, 0x3a, 0xef, 0xf3,
    0xca, 0xef, 0x0a, 0xd4, 0xd7, 0xfe, 0x09, 0x20, 0xfc, 0xd0, 0x23, 0xee,
    0xa9, 0xed, 0x05, 0x7f, 0xff, 0x18, 0xe6, 0xe3, 0x19, 0xe3, 0xe3, 0x11,
    0xde, 0xf4, 0xbc, 0xc2, 0x0e, 0x2f, 0x08, 0xf0, 0x1e, 0xdf, 0xe1, 0x47,
    0x01, 0xb0, 0xc5, 0xe1, 0x2d, 0xff, 0xf1, 0x21, 0x1e, 0xec, 0x1d, 0x1e,
    0x3d, 0xc9, 0xec, 0xe4, 0x03, 0x1f, 0x16, 0x0c, 0xd6, 0xec, 0x29, 0x18,
    0xf1, 0xef, 0x21, 0xd5, 0xf0, 0xf4, 0xd5, 0xd2, 0x10, 0x1d, 0xdb, 0xd1,
    0x25, 0x1f, 0xfd, 0x0f, 0x0c, 0x35, 0x05, 0x35, 0x45, 0x25, 0x31, 0x11,
    0x43, 0x02, 0x0f, 0xe6, 0xf8, 0x1e, 0x0e, 0xfc, 0xe9, 0xcb, 0x1a, 0xd3,
    0x0d, 0x08, 0xe4, 0xec, 0x18, 0xbe, 0x26, 0x1c, 0x0a, 0xfb, 0xba, 0x1a,
    0x35, 0x26, 0xe9, 0xf5, 0x02, 0xd7, 0x32, 0xcd, 0x0b, 0x1b, 0xc9, 0x4c,
    0x44, 0x1a, 0xee, 0x31, 0x03, 0xc3, 0xd6, 0xaf, 0xdd, 0xc6, 0xed, 0xf9,
    0xd7, 0x15, 0x18, 0x37, 0xfc, 0xf3, 0x11, 0xea, 0x33, 0xe3, 0x55, 0x0e,
    0xdf, 0x43, 0xe7, 0xd7, 0x18, 0x18, 0x02, 0xe4, 0xf7, 0xc7, 0x08, 0x12,
    0x06, 0x32, 0xc4, 0x31, 0xe0, 0xee, 0xe9, 0x28, 0xdc, 0xf1, 0x30, 0xf7,
    0x0b, 0x04, 0xf9, 0xee, 0x1b, 0x2a, 0xe9, 0x19, 0xd6, 0xe2, 0xff, 0x39,
    0x28, 0xcb, 0xd7, 0xc8, 0x3a, 0xbd, 0x15, 0xc5, 0x02, 0x27, 0xa7, 0xe4,
    0x16, 0xea, 0x1e, 0x2f, 0xcd, 0x2d, 0x17, 0x05, 0x00, 0x17, 0x06, 0x10,
    0x07, 0x2b, 0x23, 0xea, 0x08, 0x05, 0x47, 0xd7, 0x33, 0x2a, 0x18, 0xd6,
    0xb7, 0x02, 0x27, 0xf9, 0x08, 0xc8, 0xe4, 0x63, 0x3b, 0x27, 0x02, 0x1c,
    0x1a, 0x05, 0xe8, 0x1b, 0xff, 0xf5, 0x1a, 0x47, 0x05, 0x2f, 0xf8, 0x0c,
    0x31, 0xea, 0xe5, 0xe1, 0x3d, 0xfa, 0xe4, 0x1f, 0x1a, 0xf1, 0x2e, 0x21,
    0xf2, 0x1b, 0x1e, 0x1b, 0xfb, 0x14, 0xde, 0xcd, 0xd9, 0x0f, 0xb2, 0xd5,
    0x07, 0x12, 0x01, 0xf8, 0x45, 0x2f, 0x60, 0xdd, 0xf8, 0xe2, 0xe0, 0x18,
    0x39, 0x05, 0x11, 0xff, 0xfc, 0x2f, 0xed, 0x32, 0x1b, 0x15, 0xd4, 0xb8,
    0x16, 0x0a, 0xd3, 0x05, 0x02, 0xce, 0x16, 0x01, 0x19, 0x25, 0x07, 0x0a,
    0xfe, 0x7f, 0xf4, 0x30, 0x05, 0x12, 0x2c, 0xc1, 0xce, 0xe4, 0xed, 0xda,
    0x06, 0xd3, 0x38, 0x2c, 0xf4, 0x0f, 0x2a, 0xce, 0x03, 0x20, 0x2a, 0x0b,
    0x28, 0x26, 0x07, 0x08, 0xda, 0x00, 0x3a, 0x27, 0xcb, 0xeb, 0x19, 0x1a,
    0xf2, 0x32, 0xe0, 0xe9, 0xbb, 0x21, 0x32, 0xdd, 0x10, 0x1e, 0x3a, 0x1f,
    0xdc, 0x0f, 0x00, 0x10, 0xf0, 0xe1, 0x2a, 0x30, 0x3b, 0xf2, 0x33, 0xf4,
    0x03, 0xde, 0xf2, 0xe6, 0x2a, 0xe9, 0x60, 0x1b, 0x29, 0xdb, 0x22, 0x14,
    0x04, 0xe8, 0x2c, 0xf2, 0x21, 0xe4, 0x28, 0xff, 0xf8, 0xff, 0x28, 0x16,
    0xe7, 0xef, 0xf3, 0x37, 0x2e, 0x47, 0x23, 0xf9, 0xac, 0xe6, 0x26, 0x26,
    0x36, 0x25, 0x33, 0x07, 0xbe, 0xf3, 0xf5, 0xf3, 0xfb, 0xbd, 0xf1, 0x19,
    0xfb, 0xc9, 0x00, 0xd2, 0x48, 0x2e, 0x30, 0x25, 0x54, 0x97, 0xa6, 0xeb,
    0xd5, 0xe8, 0xdd, 0x3b, 0xb2, 0x39, 0x42, 0x2e, 0x5d, 0x4f, 0xf5, 0xc5,
    0xc5, 0x0c, 0xd6, 0xfe, 0x24, 0x1b, 0x0d, 0x67, 0xeb, 0x19, 0x1a, 0xc6,
    0xf9, 0x47, 0xf1, 0x36, 0x1e, 0xbd, 0x14, 0x19, 0xb7, 0xbb, 0xc2, 0xc4,
    0x06, 0xea, 0x42, 0x2c, 0x9d, 0xec, 0xfd, 0x60, 0xd5, 0x56, 0x56, 0x4e,
    0xbc, 0x18, 0xe9, 0xd2, 0xe4, 0x36, 0x36, 0xec, 0xc5, 0xf9, 0x1d, 0x30,
    0x3a, 0x1a, 0x28, 0x26, 0x09, 0xc5, 0x05, 0xe7, 0xed, 0x39, 0xee, 0x0c,
    0x0d, 0x01, 0xc8, 0xed, 0xd7, 0x36, 0x1e, 0xc5, 0xf8, 0xe8, 0x0f, 0x0b,
    0x1f, 0x34, 0x22, 0x0c, 0xea, 0xdc, 0xae, 0xdf, 0xe8, 0x3a, 0x2d, 0xde,
    0x15, 0xb2, 0x26, 0xdb, 0x4b, 0xf6, 0xb6, 0x41, 0x2b, 0xee, 0xd6, 0xcf,
    0x03, 0x1e, 0xb0, 0xd2, 0x3c, 0x17, 0xc7, 0x02, 0x06, 0xb9, 0x01, 0xc6,
    0x0b, 0x1f, 0x31, 0x46, 0x03, 0x1b, 0x1e, 0x20, 0x12, 0x24, 0x17, 0x23,
    0x59, 0x38, 0xbb, 0x45, 0x1d, 0x27, 0x3d, 0x03, 0x8f, 0x14, 0x10, 0x17,
    0xd8, 0xdf, 0xe1, 0x36, 0x3d, 0x01, 0xe3, 0x23, 0xd6, 0x85, 0x23, 0x31,
    0xd4, 0xba, 0xb0, 0xaf, 0xda, 0x02, 0x15, 0x7f, 0x3f, 0xfc, 0x6e, 0xbd,
    0x00, 0xe0, 0xf9, 0x1c, 0x5a, 0x1e, 0xfe, 0x16, 0x6c, 0x11, 0x0c, 0xce,
    0xfb, 0x25, 0x2a, 0x1f, 0xa3, 0xf4, 0x4d, 0xc8, 0x02, 0xf9, 0xe8, 0x21,
    0x21, 0x0f, 0x25, 0xc9, 0x2f, 0xe6, 0x2d, 0x2f, 0x08, 0xed, 0xee, 0x16,
    0xf2, 0x1b, 0xee, 0x48, 0x40, 0x42, 0x05, 0xc8, 0x1f, 0x04, 0x01, 0xda,
    0xcf, 0x0a, 0xe3, 0x0e, 0xe5, 0x68, 0x39, 0x2a, 0x0f, 0x09, 0xef, 0x30,
    0x16, 0xf0, 0xfa, 0xec, 0xf7, 0x06, 0xef, 0x13, 0x19, 0x47, 0x12, 0xea,
    0x29, 0xf8, 0x09, 0xa7, 0xd9, 0x35, 0x18, 0x1c, 0x05, 0xc6, 0x44, 0x21,
    0xfd, 0xe3, 0xea, 0xaa, 0xd8, 0xd3, 0x7f, 0x0c, 0x25, 0x2c, 0x29, 0xcb,
    0xe1, 0x07, 0x21, 0xcf, 0xe3, 0xf0, 0x5e, 0xd5, 0xeb, 0x01, 0xec, 0x30,
    0xca, 0x3b, 0xdf, 0x14, 0xe0, 0xda, 0x1d, 0x2e, 0x0e, 0x09, 0x0e, 0xe3,
    0x30, 0xe5, 0x3b, 0x41, 0xa2, 0x33, 0x23, 0xde, 0xe1, 0xf5, 0xed, 0x1f,
    0xe1, 0x23, 0x0a, 0x10, 0xe7, 0xe8, 0xf0, 0x31, 0xf1, 0xf1, 0xdf, 0x20,
    0x04, 0x22, 0x2e, 0xc5, 0xf1, 0xed, 0xfc, 0xfb, 0xd0, 0x38, 0x09, 0x87,
    0xe9, 0xee, 0x04, 0x21, 0xc3, 0x16, 0xe4, 0x1c, 0x23, 0x2d, 0xe0, 0xbe,
    0x4d, 0x08, 0x10, 0x07, 0xfd, 0xd8, 0xaa, 0x0c, 0x32, 0xad, 0x29, 0xee,
    0x19, 0xe2, 0xe5, 0x24, 0x40, 0xec, 0xf8, 0x48, 0xc7, 0x12, 0x17, 0x08,
    0xe5, 0xec, 0xc4, 0x4d, 0x29, 0x0d, 0x12, 0xb4, 0x25, 0x0a, 0xef, 0xc4,
    0xff, 0xdf, 0xcd, 0x36, 0xe6, 0x2b, 0x0e, 0x1b, 0xe5, 0xef, 0x1f, 0x17,
    0xd1, 0xcb, 0x25, 0xd2, 0x73, 0xf7, 0x24, 0x3a, 0x07, 0x0f, 0xf2, 0xdc,
    0x35, 0x11, 0xe3, 0xf7, 0xc9, 0x30, 0xf3, 0x2c, 0x11, 0x2c, 0x05, 0xf6,
    0x1f, 0xf8, 0x16, 0xcc, 0xe3, 0x65, 0xfc, 0xf8, 0x25, 0x4c, 0x15, 0x0c,
    0xc4, 0x3b, 0x29, 0xf0, 0x18, 0x28, 0xcd, 0xae, 0x08, 0xfa, 0xcc, 0x45,
    0x23, 0xe4, 0xc8, 0x17, 0x15, 0xb9, 0x46, 0xf1, 0xca, 0x04, 0xf0, 0xe1,
    0x02, 0x0e, 0x17, 0xf5, 0xf9, 0xfc, 0xe2, 0xc0, 0xbf, 0xfc, 0x23, 0x2a,
    0x04, 0x24, 0x1a, 0x02, 0x2f, 0xd9, 0xd0, 0x15, 0xdd, 0x31, 0x27, 0x16,
    0xff, 0xe6, 0x6e, 0x02, 0x81, 0x14, 0xe8, 0x00, 0x18, 0xb4, 0xfe, 0x36,
    0x1a, 0xe1, 0xea, 0xbc, 0x02, 0x05, 0xf4, 0x19, 0xb6, 0xf1, 0xd3, 0xe2,
    0x36, 0xe6, 0x39, 0x07, 0xe9, 0x0f, 0x0d, 0xdb, 0x01, 0x07, 0xfe, 0x07,
    0x0c, 0xbd, 0x38, 0x04, 0xf4, 0x46, 0x17, 0xf1, 0xbb, 0x0e, 0x64, 0xc4,
    0xe4, 0x30, 0xb1, 0x2a, 0xea, 0x0a, 0xf9, 0xbc, 0x09, 0xef, 0x2f, 0xe2,
    0x1d, 0xf4, 0xfe, 0xed, 0xea, 0x41, 0x0e, 0xfb, 0xef, 0x50, 0xa8, 0xe6,
    0x2e, 0x25, 0x3d, 0x23, 0xe2, 0x2e, 0x1f, 0xca, 0x41, 0x0e, 0xcf, 0xea,
    0x3a, 0x5a, 0xcc, 0x06, 0xd8, 0x1a, 0x0c, 0x45, 0x0b, 0xc5, 0xc9, 0xdd,
    0x11, 0x68, 0x42, 0xec, 0x20, 0xb9, 0x66, 0x65, 0x0d, 0x2e, 0x34, 0x01,
    0xb7, 0xd7, 0x28, 0x12, 0x15, 0xf6, 0x3c, 0x47, 0x16, 0xfd, 0x1b, 0x61,
    0xcd, 0xf3, 0x5a, 0x0c, 0x09, 0xcb, 0xc5, 0xc5, 0xa2, 0x28, 0xfd, 0x0e,
    0xd8, 0x9f, 0x4d, 0xd9, 0x52, 0xfb, 0xff, 0xff, 0x04, 0x00, 0x00, 0x00,
    0x00, 0x01, 0x00, 0x00, 0x7c, 0x00, 0x00, 0x00, 0x75, 0x00, 0x00, 0x00,
    0x9f, 0x00, 0x00, 0x00, 0x74, 0x00, 0x00, 0x00, 0xfd, 0xff, 0xff, 0xff,
    0xce, 0xff, 0xff, 0xff, 0x4c, 0x00, 0x00, 0x00, 0x42, 0x00, 0x00, 0x00,
    0x8b, 0x00, 0x00, 0x00, 0x1c, 0x00, 0x00, 0x00, 0x2a, 0x00, 0x00, 0x00,
    0x8d, 0x00, 0x00, 0x00, 0xb2, 0xff, 0xff, 0xff, 0x72, 0x00, 0x00, 0x00,
    0xe5, 0x00, 0x00, 0x00, 0x8f, 0x00, 0x00, 0x00, 0x94, 0x00, 0x00, 0x00,
    0xaa, 0x00, 0x00, 0x00, 0xa8, 0xff, 0xff, 0xff, 0x78, 0x00, 0x00, 0x00,
    0xc1, 0xff, 0xff, 0xff, 0x8f, 0x00, 0x00, 0x00, 0x56, 0x00, 0x00, 0x00,
    0x9e, 0x00, 0x00, 0x00, 0x85, 0x00, 0x00, 0x00, 0xae, 0x00, 0x00, 0x00,
    0xf3, 0xff, 0xff, 0xff, 0xf0, 0x00, 0x00, 0x00, 0x73, 0x00, 0x00, 0x00,
    0x29, 0x00, 0x00, 0x00, 0xb5, 0xff, 0xff, 0xff, 0x70, 0xff, 0xff, 0xff,
    0x98, 0x00, 0x00, 0x00, 0x97, 0x00, 0x00, 0x00, 0x79, 0x00, 0x00, 0x00,
    0xbb, 0xff, 0xff, 0xff, 0x9c, 0x00, 0x00, 0x00, 0xea, 0xff, 0xff, 0xff,
    0x9d, 0x00, 0x00, 0x00, 0x17, 0x00, 0x00, 0x00, 0x6c, 0x00, 0x00, 0x00,
    0xd8, 0x00, 0x00, 0x00, 0x10, 0x00, 0x00, 0x00, 0xbf, 0x00, 0x00, 0x00,
    0xfa, 0x00, 0x00, 0x00, 0x75, 0x00, 0x00, 0x00, 0xbe, 0x00, 0x00, 0x00,
    0x57, 0x00, 0x00, 0x00, 0xfc, 0x00, 0x00, 0x00, 0x30, 0x00, 0x00, 0x00,
    0x57, 0x00, 0x00, 0x00, 0x08, 0x00, 0x00, 0x00, 0x07, 0x00, 0x00, 0x00,
    0x4e, 0x01, 0x00, 0x00, 0xf5, 0x00, 0x00, 0x00, 0xe2, 0xff, 0xff, 0xff,
    0x90, 0x00, 0x00, 0x00, 0x08, 0xff, 0xff, 0xff, 0x39, 0x00, 0x00, 0x00,
    0xdb, 0xff, 0xff, 0xff, 0xc9, 0x00, 0x00, 0x00, 0xdd, 0xff, 0xff, 0xff,
    0xc7, 0x00, 0x00, 0x00, 0xba, 0x00, 0x00, 0x00, 0x5e, 0xfc, 0xff, 0xff,
    0x04, 0x00, 0x00, 0x00, 0x00, 0x02, 0x00, 0x00, 0x75, 0xf4, 0xa6, 0xc4,
    0xe3, 0x0c, 0x67, 0x01, 0xcc, 0x2f, 0x46, 0xc7, 0xec, 0xb5, 0xbf, 0xfd,
    0xd1, 0x66, 0xb1, 0x33, 0x95, 0x2c, 0x1d, 0xe4, 0x16, 0x04, 0xd7, 0x03,
    0xb7, 0x6f, 0x5d, 0x0a, 0xee, 0x7f, 0x1c, 0xca, 0x76, 0xa0, 0xd2, 0x98,
    0xa6, 0x44, 0x36, 0x3b, 0x8c, 0x36, 0x95, 0x55, 0xb7, 0xcf, 0x30, 0x11,
    0x66, 0x8d, 0xb4, 0xf8, 0xbf, 0x56, 0x64, 0x95, 0x03, 0x16, 0xf2, 0x59,
    0x3f, 0x0c, 0xf5, 0xbc, 0x0d, 0x27, 0x35, 0x37, 0xd0, 0xfb, 0x5a, 0x3d,
    0x21, 0x13, 0xcd, 0x50, 0xd1, 0xfa, 0x17, 0x2b, 0xb2, 0x39, 0x9c, 0xb2,
    0x2e, 0x46, 0xf1, 0x95, 0x3d, 0xba, 0x34, 0x22, 0x32, 0xf5, 0x2b, 0x44,
    0xe7, 0x4e, 0xe3, 0xb6, 0x5f, 0x58, 0xa1, 0x2d, 0xd3, 0x13, 0x1e, 0xb1,
    0xc7, 0xb0, 0x21, 0x1e, 0x04, 0x4f, 0xe3, 0x51, 0x81, 0x17, 0x05, 0x2b,
    0xcb, 0xa2, 0xc2, 0x53, 0xb3, 0xf4, 0xc1, 0xbb, 0xdb, 0x1a, 0xca, 0x68,
    0x53, 0xd5, 0xdd, 0xc1, 0xde, 0x3c, 0x48, 0x4a, 0xe2, 0xee, 0xcc, 0xb6,
    0xca, 0x1e, 0x43, 0xd9, 0xaf, 0x14, 0x9f, 0xf0, 0x0f, 0x2f, 0xd9, 0x31,
    0xb8, 0x3a, 0xe5, 0x46, 0xcc, 0x07, 0x71, 0xf1, 0x24, 0x72, 0xdd, 0x45,
    0x37, 0x50, 0x81, 0xa7, 0x34, 0xd0, 0xc0, 0xc9, 0x1f, 0x3a, 0xcc, 0x06,
    0x08, 0x1a, 0xff, 0x32, 0xed, 0x19, 0xed, 0x12, 0xf4, 0xb7, 0x46, 0xca,
    0xc0, 0x10, 0x08, 0xd7, 0x94, 0xd8, 0x54, 0xb7, 0x45, 0xbc, 0x3d, 0xf5,
    0xd8, 0x45, 0x0c, 0xcf, 0x2f, 0x48, 0xc7, 0xb1, 0xb3, 0x30, 0x0f, 0x25,
    0xdf, 0x3f, 0x7f, 0xd9, 0xc0, 0xa2, 0xb3, 0x30, 0x30, 0x23, 0xef, 0xdd,
    0xd8, 0xe4, 0xa3, 0x3a, 0x42, 0xe4, 0xef, 0xab, 0x05, 0xee, 0x15, 0x4a,
    0x3c, 0x17, 0xf5, 0xda, 0xb5, 0x2d, 0x30, 0xeb, 0x4d, 0x46, 0x95, 0x47,
    0x4e, 0xcb, 0xd4, 0x47, 0xec, 0xc3, 0xe5, 0xb6, 0xac, 0x7f, 0x62, 0x8e,
    0xb3, 0x0c, 0x4c, 0xa2, 0x2a, 0x53, 0xb2, 0x91, 0x05, 0xa9, 0x57, 0xd5,
    0x26, 0x91, 0x34, 0xcc, 0xc3, 0x16, 0x3c, 0x0c, 0x06, 0x03, 0x2d, 0x1a,
    0x12, 0xdf, 0x31, 0x67, 0xe1, 0x2a, 0xe4, 0x8d, 0xd7, 0x50, 0x4e, 0xda,
    0x61, 0xe1, 0x23, 0x09, 0xcf, 0x27, 0xa5, 0x89, 0x9a, 0x38, 0xbc, 0x1b,
    0xdd, 0x48, 0x70, 0x35, 0xd5, 0xf9, 0x53, 0x05, 0xa5, 0xd5, 0x1f, 0xe4,
    0x09, 0x00, 0xe2, 0xab, 0x41, 0x42, 0xf8, 0xee, 0x13, 0xf1, 0xbe, 0xf6,
    0xd3, 0x35, 0xda, 0x58, 0x15, 0x1e, 0xd9, 0x2a, 0x4a, 0x00, 0xb8, 0xd5,
    0x28, 0x12, 0x48, 0xe9, 0x40, 0xf9, 0xde, 0x56, 0x0a, 0x56, 0xa3, 0x0b,
    0xc1, 0x28, 0x3a, 0x18, 0x06, 0x68, 0xc2, 0xfd, 0xb9, 0xc5, 0x40, 0xd5,
    0xe9, 0xf9, 0xf0, 0xf9, 0x7f, 0xef, 0x94, 0x26, 0xeb, 0xf2, 0x42, 0xc8,
    0xb8, 0x7f, 0x06, 0xda, 0x55, 0xbf, 0x3c, 0xd6, 0x28, 0xd9, 0x87, 0x1a,
    0x39, 0xf7, 0x10, 0xca, 0x32, 0xdb, 0xd9, 0x0e, 0xf8, 0x48, 0x5f, 0x2b,
    0xcd, 0x21, 0x2e, 0x52, 0xbb, 0xf6, 0x4d, 0x16, 0xd9, 0xfb, 0x72, 0xa2,
    0x13, 0x38, 0x24, 0x90, 0xe2, 0x37, 0x35, 0xb0, 0x73, 0x9a, 0x8f, 0x61,
    0x92, 0xbd, 0x18, 0x5d, 0xc8, 0x2b, 0xff, 0x5b, 0xc1, 0xd7, 0xee, 0xb8,
    0xc7, 0x69, 0x07, 0x7d, 0x59, 0x8f, 0x81, 0x92, 0xe2, 0xe3, 0xf7, 0xc9,
    0x0e, 0xb8, 0x37, 0x66, 0xb8, 0x9f, 0x04, 0x9d, 0x0d, 0xa1, 0x42, 0x4d,
    0xa3, 0x7e, 0x1c, 0xcc, 0x5e, 0xfb, 0xe2, 0x97, 0xe5, 0xfb, 0xd8, 0x02,
    0x5e, 0x4a, 0x16, 0x3f, 0x44, 0xda, 0x79, 0x0d, 0x8e, 0x54, 0xf0, 0x07,
    0x30, 0xc4, 0x63, 0x5e, 0x31, 0x8d, 0x8b, 0x97, 0x1b, 0x16, 0x36, 0xc6,
    0x9d, 0x13, 0xc3, 0x09, 0x6a, 0xfe, 0xff, 0xff, 0x04, 0x00, 0x00, 0x00,
    0x20, 0x00, 0x00, 0x00, 0xe4, 0xff, 0xff, 0xff, 0xf3, 0xff, 0xff, 0xff,
    0x44, 0x00, 0x00, 0x00, 0xe7, 0xff, 0xff, 0xff, 0x28, 0x00, 0x00, 0x00,
    0x4e, 0x00, 0x00, 0x00, 0xd3, 0xff, 0xff, 0xff, 0x0e, 0x00, 0x00, 0x00,
    0x96, 0xfe, 0xff, 0xff, 0x04, 0x00, 0x00, 0x00, 0x04, 0x00, 0x00, 0x00,
    0xd0, 0x00, 0x00, 0x00, 0xa6, 0xfe, 0xff, 0xff, 0x04, 0x00, 0x00, 0x00,
    0x04, 0x00, 0x00, 0x00, 0x01, 0x00, 0x00, 0x00, 0xb6, 0xfe, 0xff, 0xff,
    0x04, 0x00, 0x00, 0x00, 0x04, 0x00, 0x00, 0x00, 0x00, 0x00, 0x00, 0x00,
    0xfc, 0xf0, 0xff, 0xff, 0x00, 0xf1, 0xff, 0xff, 0x0f, 0x00, 0x00, 0x00,
    0x4d, 0x4c, 0x49, 0x52, 0x20, 0x43, 0x6f, 0x6e, 0x76, 0x65, 0x72, 0x74,
    0x65, 0x64, 0x2e, 0x00, 0x01, 0x00, 0x00, 0x00, 0x14, 0x00, 0x00, 0x00,
    0x00, 0x00, 0x0e, 0x00, 0x18, 0x00, 0x14, 0x00, 0x10, 0x00, 0x0c, 0x00,
    0x08, 0x00, 0x04, 0x00, 0x0e, 0x00, 0x00, 0x00, 0x14, 0x00, 0x00, 0x00,
    0x1c, 0x00, 0x00, 0x00, 0xbc, 0x01, 0x00, 0x00, 0xc0, 0x01, 0x00, 0x00,
    0xc4, 0x01, 0x00, 0x00, 0x04, 0x00, 0x00, 0x00, 0x6d, 0x61, 0x69, 0x6e,
    0x00, 0x00, 0x00, 0x00, 0x06, 0x00, 0x00, 0x00, 0x6c, 0x01, 0x00, 0x00,
    0x0c, 0x01, 0x00, 0x00, 0xbc, 0x00, 0x00, 0x00, 0x94, 0x00, 0x00, 0x00,
    0x4c, 0x00, 0x00, 0x00, 0x04, 0x00, 0x00, 0x00, 0xca, 0xff, 0xff, 0xff,
    0x14, 0x00, 0x00, 0x00, 0x00, 0x00, 0x00, 0x08, 0x10, 0x00, 0x00, 0x00,
    0x14, 0x00, 0x00, 0x00, 0x04, 0x00, 0x00, 0x00, 0x88, 0xf1, 0xff, 0xff,
    0x01, 0x00, 0x00, 0x00, 0x0d, 0x00, 0x00, 0x00, 0x03, 0x00, 0x00, 0x00,
    0x0c, 0x00, 0x00, 0x00, 0x05, 0x00, 0x00, 0x00, 0x04, 0x00, 0x00, 0x00,
    0x00, 0x00, 0x0e, 0x00, 0x18, 0x00, 0x14, 0x00, 0x10, 0x00, 0x0c, 0x00,
    0x0b, 0x00, 0x04, 0x00, 0x0e, 0x00, 0x00, 0x00, 0x14, 0x00, 0x00, 0x00,
    0x00, 0x00, 0x00, 0x08, 0x14, 0x00, 0x00, 0x00, 0x18, 0x00, 0x00, 0x00,
    0x04, 0x00, 0x00, 0x00, 0xf2, 0xfe, 0xff, 0xff, 0x00, 0x00, 0x00, 0x01,
    0x01, 0x00, 0x00, 0x00, 0x0c, 0x00, 0x00, 0x00, 0x03, 0x00, 0x00, 0x00,
    0x0b, 0x00, 0x00, 0x00, 0x07, 0x00, 0x00, 0x00, 0x06, 0x00, 0x00, 0x00,
    0x00, 0x00, 0x0a, 0x00, 0x10, 0x00, 0x0c, 0x00, 0x08, 0x00, 0x04, 0x00,
    0x0a, 0x00, 0x00, 0x00, 0x0c, 0x00, 0x00, 0x00, 0x10, 0x00, 0x00, 0x00,
    0x03, 0x00, 0x00, 0x00, 0x01, 0x00, 0x00, 0x00, 0x0b, 0x00, 0x00, 0x00,
    0x02, 0x00, 0x00, 0x00, 0x00, 0x00, 0x00, 0x00, 0x0a, 0x00, 0x00, 0x00,
    0xc2, 0xff, 0xff, 0xff, 0x1c, 0x00, 0x00, 0x00, 0x00, 0x00, 0x00, 0x3b,
    0x1c, 0x00, 0x00, 0x00, 0x20, 0x00, 0x00, 0x00, 0x02, 0x00, 0x00, 0x00,
    0x00, 0x00, 0x06, 0x00, 0x08, 0x00, 0x04, 0x00, 0x06, 0x00, 0x00, 0x00,
    0x02, 0x00, 0x00, 0x00, 0x01, 0x00, 0x00, 0x00, 0x0a, 0x00, 0x00, 0x00,
    0x02, 0x00, 0x00, 0x00, 0x09, 0x00, 0x00, 0x00, 0x03, 0x00, 0x00, 0x00,
    0x00, 0x00, 0x0e, 0x00, 0x1a, 0x00, 0x14, 0x00, 0x10, 0x00, 0x0c, 0x00,
    0x0b, 0x00, 0x04, 0x00, 0x0e, 0x00, 0x00, 0x00, 0x24, 0x00, 0x00, 0x00,
    0x00, 0x00, 0x00, 0x20, 0x24, 0x00, 0x00, 0x00, 0x28, 0x00, 0x00, 0x00,
    0x01, 0x00, 0x00, 0x00, 0x00, 0x00, 0x0e, 0x00, 0x08, 0x00, 0x00, 0x00,
    0x00, 0x00, 0x00, 0x00, 0x00, 0x00, 0x04, 0x00, 0x0e, 0x00, 0x00, 0x00,
    0x01, 0x00, 0x00, 0x00, 0x01, 0x00, 0x00, 0x00, 0x09, 0x00, 0x00, 0x00,
    0x04, 0x00, 0x00, 0x00, 0x08, 0x00, 0x00, 0x00, 0x01, 0x00, 0x00, 0x00,
    0x02, 0x00, 0x00, 0x00, 0x02, 0x00, 0x00, 0x00, 0x00, 0x00, 0x0e, 0x00,
    0x16, 0x00, 0x00, 0x00, 0x10, 0x00, 0x0c, 0x00, 0x0b, 0x00, 0x04, 0x00,
    0x0e, 0x00, 0x00, 0x00, 0x18, 0x00, 0x00, 0x00, 0x00, 0x00, 0x00, 0x37,
    0x18, 0x00, 0x00, 0x00, 0x1c, 0x00, 0x00, 0x00, 0x00, 0x00, 0x06, 0x00,
    0x08, 0x00, 0x07, 0x00, 0x06, 0x00, 0x00, 0x00, 0x00, 0x00, 0x00, 0x02,
    0x01, 0x00, 0x00, 0x00, 0x08, 0x00, 0x00, 0x00, 0x01, 0x00, 0x00, 0x00,
    0x00, 0x00, 0x00, 0x00, 0x01, 0x00, 0x00, 0x00, 0x0d, 0x00, 0x00, 0x00,
    0x01, 0x00, 0x00, 0x00, 0x00, 0x00, 0x00, 0x00, 0x0e, 0x00, 0x00, 0x00,
    0x60, 0x0d, 0x00, 0x00, 0xd4, 0x0c, 0x00, 0x00, 0x7c, 0x0c, 0x00, 0x00,
    0x14, 0x0c, 0x00, 0x00, 0x40, 0x0b, 0x00, 0x00, 0x6c, 0x0a, 0x00, 0x00,
    0xc0, 0x06, 0x00, 0x00, 0x44, 0x03, 0x00, 0x00, 0xe4, 0x02, 0x00, 0x00,
    0x80, 0x02, 0x00, 0x00, 0x18, 0x02, 0x00, 0x00, 0x84, 0x01, 0x00, 0x00,
    0x80, 0x00, 0x00, 0x00, 0x04, 0x00, 0x00, 0x00, 0xee, 0xf2, 0xff, 0xff,
    0x00, 0x00, 0x00, 0x01, 0x18, 0x00, 0x00, 0x00, 0x20, 0x00, 0x00, 0x00,
    0x3c, 0x00, 0x00, 0x00, 0x0e, 0x00, 0x00, 0x00, 0x00, 0x00, 0x00, 0x09,
    0x50, 0x00, 0x00, 0x00, 0x02, 0x00, 0x00, 0x00, 0xff, 0xff, 0xff, 0xff,
    0x08, 0x00, 0x00, 0x00, 0xd4, 0xf2, 0xff, 0xff, 0x08, 0x00, 0x00, 0x00,
    0x10, 0x00, 0x00, 0x00, 0x01, 0x00, 0x00, 0x00, 0x23, 0x00, 0x00, 0x00,
    0x00, 0x00, 0x00, 0x00, 0x01, 0x00, 0x00, 0x00, 0x29, 0xb8, 0xba, 0x3e,
    0x1b, 0x00, 0x00, 0x00, 0x53, 0x74, 0x61, 0x74, 0x65, 0x66, 0x75, 0x6c,
    0x50, 0x61, 0x72, 0x74, 0x69, 0x74, 0x69, 0x6f, 0x6e, 0x65, 0x64, 0x43,
    0x61, 0x6c, 0x6c, 0x5f, 0x31, 0x3a, 0x30, 0x00, 0x02, 0x00, 0x00, 0x00,
    0x01, 0x00, 0x00, 0x00, 0x08, 0x00, 0x00, 0x00, 0x66, 0xf3, 0xff, 0xff,
    0x00, 0x00, 0x00, 0x01, 0x18, 0x00, 0x00, 0x00, 0x20, 0x00, 0x00, 0x00,
    0x3c, 0x00, 0x00, 0x00, 0x0d, 0x00, 0x00, 0x00, 0x00, 0x00, 0x00, 0x09,
    0xd8, 0x00, 0x00, 0x00, 0x02, 0x00, 0x00, 0x00, 0xff, 0xff, 0xff, 0xff,
    0x40, 0x00, 0x00, 0x00, 0x4c, 0xf3, 0xff, 0xff, 0x08, 0x00, 0x00, 0x00,
    0x10, 0x00, 0x00, 0x00, 0x01, 0x00, 0x00, 0x00, 0x80, 0xff, 0xff, 0xff,
    0xff, 0xff, 0xff, 0xff, 0x01, 0x00, 0x00, 0x00, 0x14, 0xbf, 0xfc, 0x3d,
    0xa0, 0x00, 0x00, 0x00, 0x74, 0x35, 0x5f, 0x77, 0x31, 0x36, 0x5f, 0x61,
    0x75, 0x74, 0x6f, 0x65, 0x6e, 0x63, 0x6f, 0x64, 0x65, 0x72, 0x5f, 0x7a,
    0x38, 0x5f, 0x65, 0x6e, 0x63, 0x6f, 0x64, 0x65, 0x72, 0x5f, 0x31, 0x2f,
    0x65, 0x6e, 0x63, 0x5f, 0x64, 0x65, 0x6e, 0x73, 0x65, 0x5f, 0x36, 0x34,
    0x5f, 0x31, 0x2f, 0x4d, 0x61, 0x74, 0x4d, 0x75, 0x6c, 0x3b, 0x74, 0x35,
    0x5f, 0x77, 0x31, 0x36, 0x5f, 0x61, 0x75, 0x74, 0x6f, 0x65, 0x6e, 0x63,
    0x6f, 0x64, 0x65, 0x72, 0x5f, 0x7a, 0x38, 0x5f, 0x65, 0x6e, 0x63, 0x6f,
    0x64, 0x65, 0x72, 0x5f, 0x31, 0x2f, 0x65, 0x6e, 0x63, 0x5f, 0x64, 0x65,
    0x6e, 0x73, 0x65, 0x5f, 0x36, 0x34, 0x5f, 0x31, 0x2f, 0x52, 0x65, 0x6c,
    0x75, 0x3b, 0x74, 0x35, 0x5f, 0x77, 0x31, 0x36, 0x5f, 0x61, 0x75, 0x74,
    0x6f, 0x65, 0x6e, 0x63, 0x6f, 0x64, 0x65, 0x72, 0x5f, 0x7a, 0x38, 0x5f,
    0x65, 0x6e, 0x63, 0x6f, 0x64, 0x65, 0x72, 0x5f, 0x31, 0x2f, 0x65, 0x6e,
    0x63, 0x5f, 0x64, 0x65, 0x6e, 0x73, 0x65, 0x5f, 0x36, 0x34, 0x5f, 0x31,
    0x2f, 0x42, 0x69, 0x61, 0x73, 0x41, 0x64, 0x64, 0x00, 0x00, 0x00, 0x00,
    0x02, 0x00, 0x00, 0x00, 0x01, 0x00, 0x00, 0x00, 0x40, 0x00, 0x00, 0x00,
    0x66, 0xf4, 0xff, 0xff, 0x00, 0x00, 0x00, 0x01, 0x18, 0x00, 0x00, 0x00,
    0x20, 0x00, 0x00, 0x00, 0x3c, 0x00, 0x00, 0x00, 0x0c, 0x00, 0x00, 0x00,
    0x00, 0x00, 0x00, 0x09, 0x68, 0x00, 0x00, 0x00, 0x02, 0x00, 0x00, 0x00,
    0xff, 0xff, 0xff, 0xff, 0xd0, 0x00, 0x00, 0x00, 0x4c, 0xf4, 0xff, 0xff,
    0x08, 0x00, 0x00, 0x00, 0x10, 0x00, 0x00, 0x00, 0x01, 0x00, 0x00, 0x00,
    0xaf, 0xff, 0xff, 0xff, 0xff, 0xff, 0xff, 0xff, 0x01, 0x00, 0x00, 0x00,
    0x02, 0x49, 0x1a, 0x3e, 0x31, 0x00, 0x00, 0x00, 0x74, 0x35, 0x5f, 0x77,
    0x31, 0x36, 0x5f, 0x61, 0x75, 0x74, 0x6f, 0x65, 0x6e, 0x63, 0x6f, 0x64,
    0x65, 0x72, 0x5f, 0x7a, 0x38, 0x5f, 0x65, 0x6e, 0x63, 0x6f, 0x64, 0x65,
    0x72, 0x5f, 0x31, 0x2f, 0x66, 0x6c, 0x61, 0x74, 0x74, 0x65, 0x6e, 0x5f,
